#include "magic_wand_model_data.h"

// We need to keep the data array aligned on some architectures.
#ifdef __has_attribute
#define HAVE_ATTRIBUTE(x) __has_attribute(x)
#else
#define HAVE_ATTRIBUTE(x) 0
#endif
#if HAVE_ATTRIBUTE(aligned) || (defined(__GNUC__) && !defined(__clang__))
#define DATA_ALIGN_ATTRIBUTE __attribute__((aligned(4)))
#else
#define DATA_ALIGN_ATTRIBUTE
#endif

const unsigned char g_magic_wand_model_data[] DATA_ALIGN_ATTRIBUTE = {
  0x1c, 0x00, 0x00, 0x00, 0x54, 0x46, 0x4c, 0x33, 0x14, 0x00, 0x20, 0x00,
  0x04, 0x00, 0x08, 0x00, 0x0c, 0x00, 0x10, 0x00, 0x14, 0x00, 0x00, 0x00,
  0x18, 0x00, 0x1c, 0x00, 0x14, 0x00, 0x00, 0x00, 0x03, 0x00, 0x00, 0x00,
  0x18, 0x00, 0x00, 0x00, 0x2c, 0x00, 0x00, 0x00, 0xd8, 0x00, 0x00, 0x00,
  0x2c, 0x00, 0x00, 0x00, 0x80, 0x00, 0x00, 0x00, 0x78, 0x00, 0x00, 0x00,
  0x05, 0x00, 0x00, 0x00, 0x28, 0x07, 0x00, 0x00, 0x44, 0x06, 0x00, 0x00,
  0xbc, 0x03, 0x00, 0x00, 0xf8, 0x02, 0x00, 0x00, 0xac, 0x01, 0x00, 0x00,
  0x01, 0x00, 0x00, 0x00, 0xd0, 0x00, 0x00, 0x00, 0x14, 0x00, 0x00, 0x00,
  0xdc, 0x32, 0x00, 0x00, 0xd8, 0x32, 0x00, 0x00, 0xd0, 0x31, 0x00, 0x00,
  0x1c, 0x31, 0x00, 0x00, 0x74, 0x30, 0x00, 0x00, 0xfc, 0x2f, 0x00, 0x00,
  0x90, 0x2f, 0x00, 0x00, 0x40, 0x13, 0x00, 0x00, 0xec, 0x11, 0x00, 0x00,
  0x10, 0x10, 0x00, 0x00, 0xb4, 0x07, 0x00, 0x00, 0xb0, 0x32, 0x00, 0x00,
  0xac, 0x32, 0x00, 0x00, 0xa8, 0x32, 0x00, 0x00, 0xa4, 0x32, 0x00, 0x00,
  0xa0, 0x32, 0x00, 0x00, 0x9c, 0x32, 0x00, 0x00, 0x98, 0x32, 0x00, 0x00,
  0x94, 0x32, 0x00, 0x00, 0x3c, 0x00, 0x00, 0x00, 0x00, 0x00, 0x00, 0x00,
  0x01, 0x00, 0x00, 0x00, 0x0c, 0x00, 0x00, 0x00, 0x08, 0x00, 0x0c, 0x00,
  0x04, 0x00, 0x08, 0x00, 0x08, 0x00, 0x00, 0x00, 0x08, 0x00, 0x00, 0x00,
  0x13, 0x00, 0x00, 0x00, 0x13, 0x00, 0x00, 0x00, 0x6d, 0x69, 0x6e, 0x5f,
  0x72, 0x75, 0x6e, 0x74, 0x69, 0x6d, 0x65, 0x5f, 0x76, 0x65, 0x72, 0x73,
  0x69, 0x6f, 0x6e, 0x00, 0xb6, 0xce, 0xff, 0xff, 0x04, 0x00, 0x00, 0x00,
  0x10, 0x00, 0x00, 0x00, 0x31, 0x2e, 0x35, 0x2e, 0x30, 0x00, 0x00, 0x00,
  0x00, 0x00, 0x00, 0x00, 0x00, 0x00, 0x00, 0x00, 0x0f, 0x00, 0x00, 0x00,
  0x4d, 0x4c, 0x49, 0x52, 0x20, 0x43, 0x6f, 0x6e, 0x76, 0x65, 0x72, 0x74,
  0x65, 0x64, 0x2e, 0x00, 0x00, 0x00, 0x0e, 0x00, 0x18, 0x00, 0x04, 0x00,
  0x08, 0x00, 0x0c, 0x00, 0x10, 0x00, 0x14, 0x00, 0x0e, 0x00, 0x00, 0x00,
  0x14, 0x00, 0x00, 0x00, 0x5c, 0x00, 0x00, 0x00, 0x60, 0x00, 0x00, 0x00,
  0x64, 0x00, 0x00, 0x00, 0x84, 0x00, 0x00, 0x00, 0x12, 0x00, 0x00, 0x00,
  0x9c, 0x31, 0x00, 0x00, 0x2c, 0x31, 0x00, 0x00, 0x88, 0x30, 0x00, 0x00,
  0xe0, 0x2f, 0x00, 0x00, 0x38, 0x2f, 0x00, 0x00, 0xd4, 0x2e, 0x00, 0x00,
  0x6c, 0x2e, 0x00, 0x00, 0x18, 0x12, 0x00, 0x00, 0xbc, 0x10, 0x00, 0x00,
  0xe0, 0x0e, 0x00, 0x00, 0x0c, 0x06, 0x00, 0x00, 0x28, 0x05, 0x00, 0x00,
  0xe8, 0x03, 0x00, 0x00, 0x3c, 0x03, 0x00, 0x00, 0x98, 0x02, 0x00, 0x00,
  0xd4, 0x01, 0x00, 0x00, 0x10, 0x01, 0x00, 0x00, 0x84, 0x00, 0x00, 0x00,
  0x01, 0x00, 0x00, 0x00, 0x00, 0x00, 0x00, 0x00, 0x01, 0x00, 0x00, 0x00,
  0x11, 0x00, 0x00, 0x00, 0x08, 0x00, 0x00, 0x00, 0x74, 0x05, 0x00, 0x00,
  0x94, 0x04, 0x00, 0x00, 0x78, 0x03, 0x00, 0x00, 0xbc, 0x02, 0x00, 0x00,
  0x30, 0x02, 0x00, 0x00, 0x50, 0x01, 0x00, 0x00, 0xa8, 0x00, 0x00, 0x00,
  0x10, 0x00, 0x00, 0x00, 0x04, 0x00, 0x00, 0x00, 0x6d, 0x61, 0x69, 0x6e,
  0x00, 0x00, 0x00, 0x00, 0x7a, 0xff, 0xff, 0xff, 0x00, 0x00, 0x00, 0x09,
  0x04, 0x00, 0x00, 0x00, 0x1c, 0x00, 0x00, 0x00, 0x10, 0x00, 0x00, 0x00,
  0x04, 0x00, 0x00, 0x00, 0xb2, 0xcf, 0xff, 0xff, 0x00, 0x00, 0x80, 0x3f,
  0x01, 0x00, 0x00, 0x00, 0x11, 0x00, 0x00, 0x00, 0x01, 0x00, 0x00, 0x00,
  0x10, 0x00, 0x00, 0x00, 0xa0, 0xfa, 0xff, 0xff, 0x19, 0x00, 0x00, 0x00,
  0x00, 0x00, 0x00, 0x19, 0x01, 0x00, 0x00, 0x00, 0x40, 0xcf, 0xff, 0xff,
  0x14, 0x00, 0x00, 0x00, 0x12, 0x00, 0x00, 0x00, 0x18, 0x00, 0x00, 0x00,
  0x30, 0x00, 0x00, 0x00, 0x20, 0x00, 0x00, 0x00, 0x02, 0x00, 0x00, 0x00,
  0x01, 0x00, 0x00, 0x00, 0x04, 0x00, 0x00, 0x00, 0x08, 0x00, 0x00, 0x00,
  0x49, 0x64, 0x65, 0x6e, 0x74, 0x69, 0x74, 0x79, 0x00, 0x00, 0x00, 0x00,
  0x02, 0x00, 0x00, 0x00, 0xff, 0xff, 0xff, 0xff, 0x04, 0x00, 0x00, 0x00,
  0x24, 0xd0, 0xff, 0xff, 0x00, 0x00, 0x0e, 0x00, 0x18, 0x00, 0x08, 0x00,
  0x0c, 0x00, 0x10, 0x00, 0x07, 0x00, 0x14, 0x00, 0x0e, 0x00, 0x00, 0x00,
  0x00, 0x00, 0x00, 0x08, 0x03, 0x00, 0x00, 0x00, 0x18, 0x00, 0x00, 0x00,
  0x0c, 0x00, 0x00, 0x00, 0x04, 0x00, 0x00, 0x00, 0x40, 0xcf, 0xff, 0xff,
  0x01, 0x00, 0x00, 0x00, 0x10, 0x00, 0x00, 0x00, 0x03, 0x00, 0x00, 0x00,
  0x0f, 0x00, 0x00, 0x00, 0x07, 0x00, 0x00, 0x00, 0x04, 0x00, 0x00, 0x00,
  0xc8, 0xcf, 0xff, 0xff, 0x14, 0x00, 0x00, 0x00, 0x11, 0x00, 0x00, 0x00,
  0x18, 0x00, 0x00, 0x00, 0x5c, 0x00, 0x00, 0x00, 0x4c, 0x00, 0x00, 0x00,
  0x02, 0x00, 0x00, 0x00, 0x01, 0x00, 0x00, 0x00, 0x04, 0x00, 0x00, 0x00,
  0x34, 0x00, 0x00, 0x00, 0x73, 0x65, 0x71, 0x75, 0x65, 0x6e, 0x74, 0x69,
  0x61, 0x6c, 0x2f, 0x64, 0x65, 0x6e, 0x73, 0x65, 0x5f, 0x31, 0x2f, 0x4d,
  0x61, 0x74, 0x4d, 0x75, 0x6c, 0x3b, 0x73, 0x65, 0x71, 0x75, 0x65, 0x6e,
  0x74, 0x69, 0x61, 0x6c, 0x2f, 0x64, 0x65, 0x6e, 0x73, 0x65, 0x5f, 0x31,
  0x2f, 0x42, 0x69, 0x61, 0x73, 0x41, 0x64, 0x64, 0x00, 0x00, 0x00, 0x00,
  0x02, 0x00, 0x00, 0x00, 0xff, 0xff, 0xff, 0xff, 0x04, 0x00, 0x00, 0x00,
  0xc8, 0xcf, 0xff, 0xff, 0xda, 0xfc, 0xff, 0xff, 0x00, 0x00, 0x00, 0x08,
  0x03, 0x00, 0x00, 0x00, 0x24, 0x00, 0x00, 0x00, 0x18, 0x00, 0x00, 0x00,
  0x0c, 0x00, 0x00, 0x00, 0x00, 0x00, 0x06, 0x00, 0x08, 0x00, 0x07, 0x00,
  0x06, 0x00, 0x00, 0x00, 0x00, 0x00, 0x00, 0x01, 0x01, 0x00, 0x00, 0x00,
  0x0f, 0x00, 0x00, 0x00, 0x03, 0x00, 0x00, 0x00, 0x0e, 0x00, 0x00, 0x00,
  0x06, 0x00, 0x00, 0x00, 0x03, 0x00, 0x00, 0x00, 0xe8, 0xfb, 0xff, 0xff,
  0x09, 0x00, 0x00, 0x00, 0x00, 0x00, 0x00, 0x09, 0x01, 0x00, 0x00, 0x00,
  0x88, 0xd0, 0xff, 0xff, 0x14, 0x00, 0x00, 0x00, 0x10, 0x00, 0x00, 0x00,
  0x18, 0x00, 0x00, 0x00, 0x6c, 0x00, 0x00, 0x00, 0x5c, 0x00, 0x00, 0x00,
  0x02, 0x00, 0x00, 0x00, 0x01, 0x00, 0x00, 0x00, 0x10, 0x00, 0x00, 0x00,
  0x46, 0x00, 0x00, 0x00, 0x73, 0x65, 0x71, 0x75, 0x65, 0x6e, 0x74, 0x69,
  0x61, 0x6c, 0x2f, 0x64, 0x65, 0x6e, 0x73, 0x65, 0x2f, 0x4d, 0x61, 0x74,
  0x4d, 0x75, 0x6c, 0x3b, 0x73, 0x65, 0x71, 0x75, 0x65, 0x6e, 0x74, 0x69,
  0x61, 0x6c, 0x2f, 0x64, 0x65, 0x6e, 0x73, 0x65, 0x2f, 0x52, 0x65, 0x6c,
  0x75, 0x3b, 0x73, 0x65, 0x71, 0x75, 0x65, 0x6e, 0x74, 0x69, 0x61, 0x6c,
  0x2f, 0x64, 0x65, 0x6e, 0x73, 0x65, 0x2f, 0x42, 0x69, 0x61, 0x73, 0x41,
  0x64, 0x64, 0x00, 0x00, 0x02, 0x00, 0x00, 0x00, 0xff, 0xff, 0xff, 0xff,
  0x10, 0x00, 0x00, 0x00, 0xa8, 0xd1, 0xff, 0xff, 0x00, 0x00, 0x0a, 0x00,
  0x10, 0x00, 0x04, 0x00, 0x08, 0x00, 0x0c, 0x00, 0x0a, 0x00, 0x00, 0x00,
  0x02, 0x00, 0x00, 0x00, 0x10, 0x00, 0x00, 0x00, 0x04, 0x00, 0x00, 0x00,
  0x01, 0x00, 0x00, 0x00, 0x0e, 0x00, 0x00, 0x00, 0x02, 0x00, 0x00, 0x00,
  0x0d, 0x00, 0x00, 0x00, 0x05, 0x00, 0x00, 0x00, 0xa8, 0xfc, 0xff, 0xff,
  0x16, 0x00, 0x00, 0x00, 0x00, 0x00, 0x00, 0x16, 0x01, 0x00, 0x00, 0x00,
  0x48, 0xd1, 0xff, 0xff, 0x14, 0x00, 0x00, 0x00, 0x0f, 0x00, 0x00, 0x00,
  0x18, 0x00, 0x00, 0x00, 0x40, 0x00, 0x00, 0x00, 0x30, 0x00, 0x00, 0x00,
  0x02, 0x00, 0x00, 0x00, 0x01, 0x00, 0x00, 0x00, 0x70, 0x00, 0x00, 0x00,
  0x1a, 0x00, 0x00, 0x00, 0x73, 0x65, 0x71, 0x75, 0x65, 0x6e, 0x74, 0x69,
  0x61, 0x6c, 0x2f, 0x66, 0x6c, 0x61, 0x74, 0x74, 0x65, 0x6e, 0x2f, 0x52,
  0x65, 0x73, 0x68, 0x61, 0x70, 0x65, 0x00, 0x00, 0x02, 0x00, 0x00, 0x00,
  0xff, 0xff, 0xff, 0xff, 0x70, 0x00, 0x00, 0x00, 0x2c, 0xd1, 0xff, 0xff,
  0x3e, 0xfe, 0xff, 0xff, 0x00, 0x00, 0x00, 0x05, 0x01, 0x00, 0x00, 0x00,
  0x38, 0x00, 0x00, 0x00, 0x2c, 0x00, 0x00, 0x00, 0x14, 0x00, 0x00, 0x00,
  0x00, 0x00, 0x0e, 0x00, 0x14, 0x00, 0x00, 0x00, 0x10, 0x00, 0x0c, 0x00,
  0x08, 0x00, 0x04, 0x00, 0x0e, 0x00, 0x00, 0x00, 0x03, 0x00, 0x00, 0x00,
  0x01, 0x00, 0x00, 0x00, 0x03, 0x00, 0x00, 0x00, 0x01, 0x00, 0x00, 0x00,
  0x01, 0x00, 0x00, 0x00, 0x0d, 0x00, 0x00, 0x00, 0x01, 0x00, 0x00, 0x00,
  0x0c, 0x00, 0x00, 0x00, 0xe8, 0xd1, 0xff, 0xff, 0x14, 0x00, 0x00, 0x00,
  0x0e, 0x00, 0x00, 0x00, 0x20, 0x00, 0x00, 0x00, 0x58, 0x00, 0x00, 0x00,
  0x40, 0x00, 0x00, 0x00, 0x04, 0x00, 0x00, 0x00, 0x01, 0x00, 0x00, 0x00,
  0x07, 0x00, 0x00, 0x00, 0x01, 0x00, 0x00, 0x00, 0x10, 0x00, 0x00, 0x00,
  0x22, 0x00, 0x00, 0x00, 0x73, 0x65, 0x71, 0x75, 0x65, 0x6e, 0x74, 0x69,
  0x61, 0x6c, 0x2f, 0x6d, 0x61, 0x78, 0x5f, 0x70, 0x6f, 0x6f, 0x6c, 0x69,
  0x6e, 0x67, 0x32, 0x64, 0x5f, 0x31, 0x2f, 0x4d, 0x61, 0x78, 0x50, 0x6f,
  0x6f, 0x6c, 0x00, 0x00, 0x04, 0x00, 0x00, 0x00, 0xff, 0xff, 0xff, 0xff,
  0x07, 0x00, 0x00, 0x00, 0x01, 0x00, 0x00, 0x00, 0x10, 0x00, 0x00, 0x00,
  0xe4, 0xd1, 0xff, 0xff, 0x1a, 0xfe, 0xff, 0xff, 0x00, 0x00, 0x00, 0x01,
  0x24, 0x00, 0x00, 0x00, 0x18, 0x00, 0x00, 0x00, 0x04, 0x00, 0x00, 0x00,
  0x0c, 0xfe, 0xff, 0xff, 0x01, 0x00, 0x00, 0x00, 0x01, 0x00, 0x00, 0x00,
  0x00, 0x00, 0x00, 0x01, 0x01, 0x00, 0x00, 0x00, 0x0c, 0x00, 0x00, 0x00,
  0x03, 0x00, 0x00, 0x00, 0x0b, 0x00, 0x00, 0x00, 0x09, 0x00, 0x00, 0x00,
  0x02, 0x00, 0x00, 0x00, 0x90, 0xd2, 0xff, 0xff, 0x14, 0x00, 0x00, 0x00,
  0x0d, 0x00, 0x00, 0x00, 0x20, 0x00, 0x00, 0x00, 0xb8, 0x00, 0x00, 0x00,
  0xa0, 0x00, 0x00, 0x00, 0x04, 0x00, 0x00, 0x00, 0x01, 0x00, 0x00, 0x00,
  0x15, 0x00, 0x00, 0x00, 0x01, 0x00, 0x00, 0x00, 0x10, 0x00, 0x00, 0x00,
  0x83, 0x00, 0x00, 0x00, 0x73, 0x65, 0x71, 0x75, 0x65, 0x6e, 0x74, 0x69,
  0x61, 0x6c, 0x2f, 0x63, 0x6f, 0x6e, 0x76, 0x32, 0x64, 0x5f, 0x31, 0x2f,
  0x52, 0x65, 0x6c, 0x75, 0x3b, 0x73, 0x65, 0x71, 0x75, 0x65, 0x6e, 0x74,
  0x69, 0x61, 0x6c, 0x2f, 0x63, 0x6f, 0x6e, 0x76, 0x32, 0x64, 0x5f, 0x31,
  0x2f, 0x42, 0x69, 0x61, 0x73, 0x41, 0x64, 0x64, 0x3b, 0x73, 0x65, 0x71,
  0x75, 0x65, 0x6e, 0x74, 0x69, 0x61, 0x6c, 0x2f, 0x63, 0x6f, 0x6e, 0x76,
  0x32, 0x64, 0x5f, 0x31, 0x2f, 0x43, 0x6f, 0x6e, 0x76, 0x32, 0x44, 0x3b,
  0x73, 0x65, 0x71, 0x75, 0x65, 0x6e, 0x74, 0x69, 0x61, 0x6c, 0x2f, 0x63,
  0x6f, 0x6e, 0x76, 0x32, 0x64, 0x5f, 0x31, 0x2f, 0x42, 0x69, 0x61, 0x73,
  0x41, 0x64, 0x64, 0x2f, 0x52, 0x65, 0x61, 0x64, 0x56, 0x61, 0x72, 0x69,
  0x61, 0x62, 0x6c, 0x65, 0x4f, 0x70, 0x2f, 0x72, 0x65, 0x73, 0x6f, 0x75,
  0x72, 0x63, 0x65, 0x00, 0x04, 0x00, 0x00, 0x00, 0xff, 0xff, 0xff, 0xff,
  0x15, 0x00, 0x00, 0x00, 0x01, 0x00, 0x00, 0x00, 0x10, 0x00, 0x00, 0x00,
  0xfc, 0xd3, 0xff, 0xff, 0x00, 0x00, 0x0e, 0x00, 0x1a, 0x00, 0x08, 0x00,
  0x0c, 0x00, 0x10, 0x00, 0x07, 0x00, 0x14, 0x00, 0x0e, 0x00, 0x00, 0x00,
  0x00, 0x00, 0x00, 0x05, 0x01, 0x00, 0x00, 0x00, 0x3c, 0x00, 0x00, 0x00,
  0x30, 0x00, 0x00, 0x00, 0x14, 0x00, 0x00, 0x00, 0x00, 0x00, 0x0e, 0x00,
  0x18, 0x00, 0x17, 0x00, 0x10, 0x00, 0x0c, 0x00, 0x08, 0x00, 0x04, 0x00,
  0x0e, 0x00, 0x00, 0x00, 0x03, 0x00, 0x00, 0x00, 0x03, 0x00, 0x00, 0x00,
  0x03, 0x00, 0x00, 0x00, 0x03, 0x00, 0x00, 0x00, 0x00, 0x00, 0x00, 0x01,
  0x01, 0x00, 0x00, 0x00, 0x0b, 0x00, 0x00, 0x00, 0x01, 0x00, 0x00, 0x00,
  0x0a, 0x00, 0x00, 0x00, 0x2c, 0xff, 0xff, 0xff, 0x11, 0x00, 0x00, 0x00,
  0x00, 0x00, 0x00, 0x11, 0x01, 0x00, 0x00, 0x00, 0xcc, 0xd3, 0xff, 0xff,
  0x14, 0x00, 0x00, 0x00, 0x0c, 0x00, 0x00, 0x00, 0x20, 0x00, 0x00, 0x00,
  0x58, 0x00, 0x00, 0x00, 0x40, 0x00, 0x00, 0x00, 0x04, 0x00, 0x00, 0x00,
  0x01, 0x00, 0x00, 0x00, 0x15, 0x00, 0x00, 0x00, 0x01, 0x00, 0x00, 0x00,
  0x08, 0x00, 0x00, 0x00, 0x20, 0x00, 0x00, 0x00, 0x73, 0x65, 0x71, 0x75,
  0x65, 0x6e, 0x74, 0x69, 0x61, 0x6c, 0x2f, 0x6d, 0x61, 0x78, 0x5f, 0x70,
  0x6f, 0x6f, 0x6c, 0x69, 0x6e, 0x67, 0x32, 0x64, 0x2f, 0x4d, 0x61, 0x78,
  0x50, 0x6f, 0x6f, 0x6c, 0x00, 0x00, 0x00, 0x00, 0x04, 0x00, 0x00, 0x00,
  0xff, 0xff, 0xff, 0xff, 0x15, 0x00, 0x00, 0x00, 0x01, 0x00, 0x00, 0x00,
  0x08, 0x00, 0x00, 0x00, 0xd8, 0xd4, 0xff, 0xff, 0x00, 0x00, 0x0e, 0x00,
  0x14, 0x00, 0x00, 0x00, 0x08, 0x00, 0x0c, 0x00, 0x07, 0x00, 0x10, 0x00,
  0x0e, 0x00, 0x00, 0x00, 0x00, 0x00, 0x00, 0x01, 0x30, 0x00, 0x00, 0x00,
  0x24, 0x00, 0x00, 0x00, 0x10, 0x00, 0x00, 0x00, 0x0c, 0x00, 0x10, 0x00,
  0x00, 0x00, 0x04, 0x00, 0x08, 0x00, 0x0f, 0x00, 0x0c, 0x00, 0x00, 0x00,
  0x01, 0x00, 0x00, 0x00, 0x01, 0x00, 0x00, 0x00, 0x00, 0x00, 0x00, 0x01,
  0x01, 0x00, 0x00, 0x00, 0x0a, 0x00, 0x00, 0x00, 0x03, 0x00, 0x00, 0x00,
  0x00, 0x00, 0x00, 0x00, 0x08, 0x00, 0x00, 0x00, 0x01, 0x00, 0x00, 0x00,
  0x0c, 0x00, 0x10, 0x00, 0x0b, 0x00, 0x00, 0x00, 0x0c, 0x00, 0x04, 0x00,
  0x0c, 0x00, 0x00, 0x00, 0x03, 0x00, 0x00, 0x00, 0x00, 0x00, 0x00, 0x03,
  0x01, 0x00, 0x00, 0x00, 0xac, 0xd4, 0xff, 0xff, 0x14, 0x00, 0x00, 0x00,
  0x0b, 0x00, 0x00, 0x00, 0x20, 0x00, 0x00, 0x00, 0xb0, 0x00, 0x00, 0x00,
  0x98, 0x00, 0x00, 0x00, 0x04, 0x00, 0x00, 0x00, 0x01, 0x00, 0x00, 0x00,
  0x40, 0x00, 0x00, 0x00, 0x03, 0x00, 0x00, 0x00, 0x08, 0x00, 0x00, 0x00,
  0x7b, 0x00, 0x00, 0x00, 0x73, 0x65, 0x71, 0x75, 0x65, 0x6e, 0x74, 0x69,
  0x61, 0x6c, 0x2f, 0x63, 0x6f, 0x6e, 0x76, 0x32, 0x64, 0x2f, 0x52, 0x65,
  0x6c, 0x75, 0x3b, 0x73, 0x65, 0x71, 0x75, 0x65, 0x6e, 0x74, 0x69, 0x61,
  0x6c, 0x2f, 0x63, 0x6f, 0x6e, 0x76, 0x32, 0x64, 0x2f, 0x42, 0x69, 0x61,
  0x73, 0x41, 0x64, 0x64, 0x3b, 0x73, 0x65, 0x71, 0x75, 0x65, 0x6e, 0x74,
  0x69, 0x61, 0x6c, 0x2f, 0x63, 0x6f, 0x6e, 0x76, 0x32, 0x64, 0x2f, 0x43,
  0x6f, 0x6e, 0x76, 0x32, 0x44, 0x3b, 0x73, 0x65, 0x71, 0x75, 0x65, 0x6e,
  0x74, 0x69, 0x61, 0x6c, 0x2f, 0x63, 0x6f, 0x6e, 0x76, 0x32, 0x64, 0x2f,
  0x42, 0x69, 0x61, 0x73, 0x41, 0x64, 0x64, 0x2f, 0x52, 0x65, 0x61, 0x64,
  0x56, 0x61, 0x72, 0x69, 0x61, 0x62, 0x6c, 0x65, 0x4f, 0x70, 0x2f, 0x72,
  0x65, 0x73, 0x6f, 0x75, 0x72, 0x63, 0x65, 0x00, 0x04, 0x00, 0x00, 0x00,
  0xff, 0xff, 0xff, 0xff, 0x40, 0x00, 0x00, 0x00, 0x03, 0x00, 0x00, 0x00,
  0x08, 0x00, 0x00, 0x00, 0x00, 0xd5, 0xff, 0xff, 0x0a, 0xd6, 0xff, 0xff,
  0x04, 0x00, 0x00, 0x00, 0x00, 0x08, 0x00, 0x00, 0x2e, 0x3d, 0xe7, 0x3c,
  0xe0, 0xe8, 0x6e, 0x3d, 0x5f, 0x46, 0x18, 0xbe, 0x0e, 0x24, 0x06, 0x3f,
  0x6f, 0xfc, 0xb5, 0xbd, 0x12, 0xf1, 0xc8, 0xbe, 0xc7, 0x38, 0x01, 0xbf,
  0x54, 0xa4, 0x7e, 0xbd, 0x15, 0x65, 0xd3, 0x3e, 0x46, 0xa6, 0x6f, 0x3d,
  0x2a, 0x71, 0xcc, 0xbd, 0x0d, 0x20, 0xaa, 0xbd, 0x17, 0x99, 0x07, 0x3e,
  0x1a, 0xcc, 0x25, 0xbf, 0x98, 0x9e, 0x77, 0xbb, 0x11, 0x49, 0x7b, 0xbc,
  0x25, 0xc3, 0xa0, 0xbd, 0xf0, 0x6b, 0xc2, 0xb7, 0x7b, 0xf6, 0x81, 0xbd,
  0xfd, 0x0c, 0x1e, 0xbe, 0xa9, 0x3c, 0x8d, 0xbd, 0xed, 0xa5, 0x0e, 0xbe,
  0x8d, 0x8e, 0xe8, 0x3d, 0x7c, 0xea, 0xb6, 0x3d, 0x31, 0xf7, 0xd5, 0xbd,
  0x1a, 0x4d, 0xa9, 0xbd, 0x64, 0xd5, 0xb8, 0x3d, 0xd1, 0x21, 0x00, 0xbe,
  0x91, 0x75, 0x0a, 0xbe, 0xd7, 0xfa, 0x43, 0x3e, 0xeb, 0x3a, 0x44, 0xbe,
  0x4e, 0x7f, 0xd3, 0xbc, 0x8a, 0x04, 0x56, 0x3e, 0xaa, 0xe7, 0x2b, 0xbe,
  0x1b, 0xe5, 0x12, 0xbe, 0x85, 0xbf, 0x5a, 0xbe, 0xa3, 0x95, 0x45, 0xbd,
  0x21, 0x37, 0x26, 0xbe, 0xf4, 0x09, 0xbd, 0xbe, 0x5d, 0x2e, 0xfd, 0xbd,
  0x02, 0xe5, 0x8f, 0x3e, 0x94, 0x4b, 0xed, 0xbd, 0x8c, 0x69, 0x29, 0xbe,
  0xa6, 0x2a, 0xec, 0xbd, 0x5b, 0xe8, 0x02, 0xba, 0xee, 0x8e, 0x52, 0xbe,
  0x93, 0x6e, 0xf9, 0xbd, 0x73, 0xf1, 0x0d, 0xbe, 0x7a, 0x96, 0x52, 0xbe,
  0xbf, 0x56, 0x30, 0xbb, 0x5c, 0x87, 0xe5, 0xbd, 0x9a, 0x86, 0x48, 0x3d,
  0xed, 0xd8, 0xa1, 0x3d, 0x89, 0x8d, 0x11, 0xbe, 0x81, 0xf1, 0x0c, 0x3e,
  0xb2, 0x96, 0xa3, 0xbd, 0x48, 0x98, 0x74, 0xbd, 0x9a, 0x18, 0x75, 0x3d,
  0x51, 0x88, 0x93, 0x3e, 0xda, 0x49, 0x05, 0x3d, 0x30, 0xbe, 0x17, 0xbe,
  0xca, 0x32, 0x79, 0x3e, 0x36, 0xa4, 0xee, 0x3e, 0x7a, 0xba, 0x26, 0x3d,
  0xac, 0xc9, 0x68, 0x3c, 0x39, 0x46, 0xf7, 0x3b, 0xad, 0xaf, 0xaf, 0x3c,
  0x1f, 0xbf, 0x0f, 0x3e, 0x39, 0xb9, 0xbd, 0xbc, 0x50, 0x06, 0xfc, 0x3d,
  0xd6, 0x81, 0xa1, 0xbd, 0x97, 0x6b, 0xb5, 0x3a, 0x4b, 0xc2, 0x45, 0x3d,
  0x3d, 0x70, 0xc6, 0xbd, 0x29, 0x87, 0x01, 0x3c, 0x83, 0xf7, 0x2b, 0x3d,
  0x0f, 0x9f, 0x39, 0x3d, 0x1c, 0xd2, 0x90, 0x3d, 0xf6, 0x4b, 0x0f, 0xbd,
  0x11, 0x67, 0x45, 0x3e, 0xb2, 0xd8, 0x01, 0x3c, 0x9b, 0xac, 0x52, 0x3c,
  0xc6, 0x73, 0x0b, 0x3e, 0x92, 0xdf, 0x73, 0xbd, 0x9a, 0x86, 0x04, 0xbc,
  0x34, 0xeb, 0xf2, 0x3d, 0x24, 0xf1, 0xf6, 0xbd, 0xc1, 0xdb, 0xcb, 0x3d,
  0x0b, 0x35, 0x32, 0xbd, 0xfb, 0xed, 0x91, 0x3d, 0x0c, 0x8e, 0xbc, 0xbd,
  0x21, 0xe6, 0x43, 0xbd, 0xf8, 0x4b, 0xc3, 0xbd, 0x72, 0xf8, 0x1e, 0xbd,
  0x49, 0x82, 0x9d, 0xbd, 0x95, 0x1b, 0x95, 0xbd, 0xf1, 0x68, 0x0d, 0xbe,
  0x86, 0x1f, 0xbe, 0xbc, 0xf4, 0xb6, 0x55, 0x3e, 0x88, 0x89, 0xb8, 0xbd,
  0x87, 0x4c, 0x98, 0xbe, 0x75, 0xad, 0xc5, 0x3d, 0xa4, 0xa3, 0x55, 0xbd,
  0x92, 0x8b, 0xaa, 0xbd, 0xc8, 0x4b, 0x82, 0xbe, 0x7e, 0xd3, 0xae, 0xbe,
  0x2c, 0xa9, 0x1b, 0xbc, 0x73, 0x7e, 0xbf, 0xbe, 0x9a, 0xd1, 0xbe, 0xbe,
  0x00, 0x55, 0xd3, 0xbc, 0x38, 0xe0, 0x1c, 0xbe, 0xa1, 0x6f, 0x8d, 0x3d,
  0x6a, 0xa5, 0x8c, 0x3e, 0xde, 0xf0, 0xa1, 0x3d, 0x48, 0xbe, 0xc8, 0x3d,
  0xf9, 0xb9, 0xf7, 0x3c, 0xc2, 0x29, 0xea, 0xbc, 0x9f, 0xd0, 0xd3, 0xbd,
  0xa7, 0xde, 0x2f, 0xbd, 0xe1, 0x59, 0x1c, 0xbd, 0x36, 0x9f, 0xe0, 0xbd,
  0x5b, 0xbb, 0x72, 0xbe, 0xb9, 0x56, 0x63, 0xbe, 0xc0, 0xdb, 0xce, 0xbe,
  0x44, 0x04, 0x58, 0xbe, 0x66, 0x56, 0xdf, 0xbe, 0x63, 0xb8, 0x81, 0xbe,
  0x36, 0x3d, 0xba, 0xbe, 0xef, 0xdc, 0xd0, 0x3e, 0x9a, 0x10, 0x9d, 0xbe,
  0xb3, 0xd3, 0x42, 0x3e, 0x43, 0x26, 0x2d, 0x3c, 0x31, 0xa5, 0x41, 0xbe,
  0x01, 0x4e, 0x79, 0x3e, 0x87, 0x52, 0x12, 0x3d, 0x3f, 0xcf, 0x35, 0x3c,
  0x7b, 0xec, 0xa8, 0xbc, 0x7a, 0x7c, 0xc4, 0xbe, 0xf3, 0x51, 0x98, 0x3d,
  0x32, 0xf6, 0x06, 0xbe, 0xa5, 0xaf, 0xc4, 0xbc, 0x76, 0x68, 0xc2, 0xbd,
  0x94, 0x60, 0x93, 0xbe, 0x59, 0x09, 0xae, 0xbd, 0xc0, 0xcd, 0x97, 0x3d,
  0xab, 0x31, 0x69, 0xbe, 0xcb, 0x6a, 0x16, 0xbe, 0xc4, 0x36, 0x85, 0x3d,
  0xb8, 0xd7, 0x03, 0x3e, 0xad, 0x22, 0x49, 0xbe, 0xb2, 0x76, 0x82, 0xbe,
  0xf1, 0x69, 0x14, 0xbe, 0x32, 0xc7, 0xe4, 0x3c, 0x95, 0x0b, 0x6f, 0xbd,
  0x77, 0x2b, 0x42, 0xbe, 0x50, 0x2d, 0x04, 0xbe, 0xa3, 0xff, 0x9f, 0x3e,
  0x6b, 0x8f, 0x86, 0xbe, 0x7a, 0xed, 0xec, 0xbd, 0xd0, 0xbb, 0x61, 0xbe,
  0xb5, 0xd9, 0xda, 0x3e, 0x75, 0x86, 0x22, 0x3d, 0x76, 0x35, 0xe9, 0xbe,
  0xcd, 0xd2, 0x67, 0x3e, 0xf3, 0x1b, 0xff, 0x3d, 0xd8, 0xd8, 0xb6, 0xbe,
  0x47, 0x92, 0x15, 0x3d, 0x4a, 0x0a, 0x4d, 0xbe, 0xe4, 0xc0, 0x98, 0xbe,
  0x2f, 0x6b, 0xd1, 0xbd, 0xc6, 0x25, 0x1e, 0xbf, 0x88, 0xe9, 0x92, 0x3d,
  0x67, 0x5f, 0x75, 0x3e, 0xb0, 0xf7, 0x9a, 0xbe, 0x2a, 0x98, 0xaf, 0x3d,
  0x8b, 0x39, 0xc2, 0xbe, 0x16, 0x44, 0x90, 0x3b, 0x1d, 0x9d, 0x04, 0xbf,
  0xb9, 0xff, 0x53, 0x3e, 0xf6, 0x08, 0x49, 0xbe, 0x25, 0x27, 0xe2, 0xbd,
  0x5c, 0x8e, 0x0e, 0x3e, 0x02, 0xa9, 0x2a, 0x3e, 0xf7, 0x07, 0xa1, 0x3c,
  0xe1, 0x4f, 0x38, 0x3c, 0x4f, 0xeb, 0x3c, 0xbf, 0x35, 0x08, 0xf5, 0x3d,
  0xca, 0xcf, 0x41, 0x3c, 0x96, 0x2f, 0xd8, 0xbc, 0x3c, 0x31, 0xf2, 0x3d,
  0xde, 0x75, 0x3e, 0xbe, 0x8b, 0x97, 0x2e, 0xbd, 0xd3, 0x0a, 0x8c, 0xbe,
  0x0f, 0x95, 0xf2, 0xbd, 0xdb, 0xed, 0x15, 0xbe, 0xec, 0x5d, 0x2e, 0xbe,
  0xcc, 0xfe, 0x1f, 0xbe, 0x35, 0xeb, 0x1b, 0xbe, 0xf3, 0x7f, 0x49, 0xbc,
  0xaf, 0x94, 0xc0, 0xbd, 0x95, 0x05, 0x77, 0xbe, 0x11, 0x5e, 0xd1, 0xbd,
  0xcc, 0x25, 0x7e, 0xbd, 0x64, 0xdc, 0x1c, 0xbe, 0x46, 0xd6, 0x14, 0xbe,
  0xb6, 0xce, 0x0f, 0xbe, 0xb7, 0x2b, 0x5d, 0xbe, 0xbf, 0x75, 0xac, 0xbd,
  0x53, 0xf0, 0xdb, 0x3d, 0x1a, 0x76, 0xd1, 0xbd, 0x93, 0xea, 0xa3, 0x3c,
  0x95, 0xa8, 0xe9, 0xbd, 0x5d, 0xfd, 0x60, 0xbd, 0x66, 0xc1, 0xeb, 0xbd,
  0x41, 0x77, 0x11, 0xbe, 0x97, 0x0f, 0x69, 0xbd, 0x59, 0x8c, 0x03, 0x3e,
  0xf7, 0xfd, 0x08, 0xbd, 0xb8, 0x90, 0xed, 0x3d, 0x20, 0x7e, 0x2f, 0x3f,
  0x75, 0xb6, 0x9f, 0x3e, 0x2e, 0xb1, 0x29, 0xbe, 0xa0, 0xd8, 0xc5, 0x3d,
  0x2a, 0xa2, 0xda, 0xbb, 0xcc, 0x78, 0x85, 0xbe, 0x60, 0x3e, 0x9e, 0x3d,
  0xa5, 0xf7, 0xce, 0x3b, 0x01, 0x00, 0xa3, 0xbe, 0x44, 0xa9, 0x6e, 0xbe,
  0x48, 0x54, 0x4d, 0xbd, 0xe0, 0xc3, 0xbc, 0x3d, 0xe8, 0x4f, 0xcf, 0xbc,
  0xf9, 0x38, 0xba, 0x3e, 0xfd, 0xa9, 0x6e, 0x3e, 0x61, 0x29, 0x8c, 0xbc,
  0x51, 0xc4, 0x85, 0xbe, 0xbf, 0xa4, 0x88, 0xbe, 0xaf, 0xda, 0xac, 0x3e,
  0x97, 0xc8, 0x24, 0xbc, 0xdd, 0xfc, 0x13, 0x3b, 0x50, 0x71, 0x83, 0x3e,
  0xc6, 0x49, 0x87, 0xbe, 0xe8, 0x39, 0x30, 0xbd, 0x96, 0x64, 0x21, 0x3e,
  0xef, 0x20, 0x27, 0xbe, 0x39, 0xac, 0x2d, 0xbd, 0xc1, 0x71, 0x01, 0xbe,
  0x40, 0x89, 0xcc, 0xbd, 0xb9, 0x64, 0xde, 0x3c, 0x84, 0x34, 0x86, 0xbe,
  0x0a, 0x42, 0xa1, 0xbd, 0xa8, 0xca, 0xad, 0x3d, 0x73, 0x8a, 0x3e, 0x3d,
  0xec, 0xf4, 0xc0, 0xbd, 0x33, 0xa0, 0x90, 0xbe, 0x9d, 0xbc, 0x2c, 0xbe,
  0x46, 0x21, 0x93, 0x3d, 0xcd, 0x9a, 0xeb, 0x3e, 0xe5, 0x92, 0xa5, 0xbc,
  0x88, 0xfd, 0x6d, 0xbd, 0xf3, 0x7d, 0x0b, 0x3c, 0xb7, 0xbd, 0x17, 0xbe,
  0x10, 0x46, 0xbc, 0x3d, 0x6f, 0x1e, 0x95, 0x3e, 0x2b, 0xc1, 0x62, 0x3d,
  0x8c, 0x84, 0xfc, 0xbd, 0xde, 0xfe, 0xa9, 0xbd, 0xbf, 0x43, 0xa2, 0xbe,
  0x4e, 0x2d, 0x85, 0xbe, 0xbf, 0x2d, 0x3a, 0xbe, 0x82, 0xe9, 0x43, 0x3d,
  0x0f, 0xf4, 0x71, 0x3c, 0x09, 0x5e, 0x0d, 0xbe, 0x8d, 0x95, 0x95, 0xbd,
  0x98, 0xcf, 0x14, 0xbe, 0x66, 0x3b, 0x50, 0xbe, 0xe0, 0xca, 0x5f, 0xbe,
  0x2a, 0x52, 0x89, 0x3c, 0x1e, 0x88, 0x2d, 0x3d, 0xc3, 0xd5, 0xd3, 0xbd,
  0x02, 0x7e, 0xc4, 0xbe, 0xee, 0x3d, 0x1a, 0xbe, 0xc6, 0x17, 0x4d, 0xbe,
  0x90, 0x9d, 0x99, 0xbe, 0x33, 0xbb, 0x98, 0xbe, 0x4a, 0xcc, 0x38, 0xbd,
  0xd8, 0x4d, 0x38, 0xbc, 0x84, 0xba, 0x11, 0xbe, 0xa3, 0xa6, 0xa9, 0xbe,
  0x8f, 0x76, 0xce, 0xbd, 0xa3, 0x4f, 0x85, 0x3b, 0x39, 0x63, 0x82, 0xbe,
  0x5c, 0xbc, 0x05, 0xbe, 0xf7, 0xca, 0xb7, 0xbc, 0xec, 0x97, 0xab, 0x3e,
  0x9a, 0xf9, 0x66, 0xbe, 0xdd, 0xf5, 0xf2, 0xbd, 0xe4, 0x2b, 0x42, 0x3e,
  0x4e, 0x14, 0x33, 0xbd, 0xec, 0x54, 0x99, 0xbd, 0x95, 0x37, 0xda, 0x3e,
  0x72, 0x80, 0x2f, 0xbd, 0x08, 0x04, 0x47, 0x3e, 0x8c, 0x0c, 0xdf, 0xbd,
  0x5f, 0x79, 0xc4, 0xbd, 0xf0, 0x6b, 0xa1, 0x3d, 0xd4, 0x76, 0x65, 0xbb,
  0xe5, 0x67, 0x59, 0xbd, 0x8c, 0x84, 0x9b, 0xbd, 0x31, 0x20, 0x9e, 0xbd,
  0x33, 0x90, 0xa8, 0x3d, 0xbf, 0xc4, 0xa1, 0xbd, 0x04, 0x1f, 0x12, 0xbe,
  0x1c, 0x5f, 0xe1, 0x3c, 0xc8, 0xc3, 0x80, 0xbb, 0x80, 0x8e, 0x1a, 0xbe,
  0x16, 0xa8, 0x58, 0x3e, 0x1a, 0x1b, 0xb1, 0xbd, 0x1e, 0x38, 0x4f, 0x3e,
  0x5b, 0xf7, 0x92, 0xbd, 0x48, 0x39, 0x3f, 0x3e, 0xb1, 0x4a, 0x4a, 0x3e,
  0x7e, 0x9e, 0xda, 0x3e, 0x2e, 0xec, 0xfa, 0x3d, 0x3d, 0xb9, 0x4b, 0x3e,
  0xfb, 0x03, 0x8d, 0xbe, 0x39, 0x95, 0x76, 0xbe, 0x8a, 0x86, 0x66, 0x3e,
  0x0e, 0xe7, 0x25, 0x3e, 0x7f, 0xfb, 0x51, 0x3e, 0x90, 0x31, 0xea, 0xbd,
  0x1b, 0x99, 0x85, 0xbd, 0xfa, 0x2f, 0xdc, 0xbd, 0xfb, 0x30, 0x96, 0xbe,
  0x19, 0xcc, 0x80, 0xbd, 0xe7, 0xb1, 0x82, 0xbd, 0x89, 0x4a, 0x41, 0x3d,
  0xa2, 0xe6, 0xca, 0xbd, 0x92, 0x42, 0x30, 0xbe, 0x4c, 0xe8, 0x8b, 0xbe,
  0x2e, 0x42, 0x91, 0xbe, 0xa4, 0xe2, 0xa8, 0xbd, 0xa6, 0xc6, 0x27, 0x3d,
  0x4c, 0x63, 0xc1, 0xbd, 0xa6, 0xd7, 0xa1, 0xbe, 0x28, 0xb7, 0x30, 0xbe,
  0x41, 0x28, 0xa1, 0xbe, 0x3d, 0x75, 0xb8, 0xbe, 0xc7, 0x6a, 0xe4, 0xbe,
  0xc2, 0x2b, 0x8a, 0xbc, 0x2f, 0xef, 0x3c, 0x3d, 0x03, 0x6c, 0x26, 0xbe,
  0xe7, 0xe2, 0x0d, 0x3e, 0xa4, 0xf5, 0xeb, 0xbd, 0xf4, 0x39, 0xaa, 0xbe,
  0xd3, 0xfb, 0xb0, 0xbe, 0x9d, 0x73, 0xcb, 0x3e, 0xd8, 0xc3, 0x49, 0x3e,
  0x14, 0xd6, 0x24, 0xbe, 0xc6, 0xb3, 0x85, 0xbe, 0x59, 0x4e, 0x5c, 0x3e,
  0x3f, 0x89, 0x4d, 0xbc, 0xc5, 0xe7, 0xa7, 0xbe, 0x51, 0xb4, 0x84, 0x3e,
  0xe4, 0x85, 0xd6, 0xbc, 0x97, 0xf6, 0x53, 0xbc, 0xdf, 0x59, 0xcf, 0x3e,
  0x9f, 0xa4, 0x7b, 0xbe, 0x48, 0x87, 0x96, 0xbe, 0x34, 0xcb, 0x75, 0xbd,
  0x74, 0x3b, 0xa5, 0xbe, 0xad, 0x39, 0xfd, 0xbd, 0xbd, 0xcb, 0x3f, 0x3e,
  0x8e, 0x7d, 0x84, 0xbd, 0x8a, 0x1e, 0x87, 0x3d, 0xf5, 0xce, 0x6b, 0xbe,
  0x95, 0x40, 0x45, 0xbc, 0xfe, 0xb3, 0x37, 0xbc, 0x15, 0x7a, 0x35, 0xbe,
  0x7e, 0x64, 0x00, 0x3d, 0x1f, 0x7a, 0x28, 0x3e, 0x81, 0x0f, 0x54, 0x3e,
  0xd9, 0x17, 0x98, 0x3d, 0xb8, 0x78, 0x55, 0xbe, 0xb3, 0xc0, 0xdd, 0x3e,
  0x4f, 0x59, 0xa2, 0x3d, 0xc9, 0x97, 0xa2, 0xbd, 0x38, 0xd5, 0x19, 0x3e,
  0x82, 0xfa, 0x99, 0xbd, 0x97, 0xc3, 0x0c, 0x3f, 0x97, 0x99, 0xa6, 0x3e,
  0xd1, 0x99, 0x38, 0xbd, 0xbf, 0xea, 0x07, 0x3e, 0x53, 0xd8, 0x52, 0x3c,
  0x5b, 0x4d, 0x94, 0xbd, 0x2f, 0xea, 0x09, 0xbe, 0x89, 0x4a, 0x58, 0xbe,
  0xfd, 0x45, 0x3c, 0xbe, 0x66, 0x16, 0x3d, 0xbe, 0x27, 0xd8, 0x26, 0xbc,
  0xe6, 0x48, 0x24, 0x3e, 0xf0, 0x20, 0x56, 0xbc, 0xd2, 0xce, 0xc6, 0xbd,
  0xd2, 0xa4, 0x71, 0xbd, 0x38, 0x6e, 0xea, 0xbd, 0x5a, 0x32, 0x2d, 0xbe,
  0x68, 0x5d, 0x40, 0xbe, 0xd8, 0xdf, 0x7d, 0xbd, 0x1f, 0x40, 0x29, 0xbd,
  0x29, 0x47, 0xc6, 0xbd, 0xc7, 0x73, 0x11, 0xbe, 0x7e, 0x11, 0x8f, 0x3c,
  0xfd, 0x2e, 0xf3, 0x3c, 0x57, 0x40, 0x2f, 0xbe, 0x0d, 0xf0, 0x8a, 0xbe,
  0x55, 0x1e, 0x00, 0xbe, 0x3f, 0xb6, 0xb7, 0xbe, 0xcc, 0xe5, 0xaa, 0xbd,
  0x93, 0x16, 0xae, 0x3d, 0xa1, 0x9f, 0x9c, 0xbe, 0xcf, 0xfc, 0x83, 0xbd,
  0xb4, 0xe5, 0x08, 0xbd, 0xbe, 0x25, 0x09, 0xbe, 0xdf, 0xc0, 0x55, 0xbd,
  0xff, 0xa0, 0xbe, 0xbe, 0x65, 0xfc, 0xfc, 0xbd, 0x08, 0xb9, 0x34, 0xbd,
  0xd3, 0x22, 0x6a, 0xbe, 0x14, 0x64, 0xdf, 0xbd, 0x9e, 0x4c, 0x7c, 0xbc,
  0x37, 0x33, 0xce, 0xbd, 0x24, 0xbd, 0x08, 0x3d, 0x42, 0x17, 0xfe, 0x3b,
  0xb5, 0xbc, 0x67, 0xbd, 0xe2, 0x4b, 0x8a, 0x3b, 0x90, 0x32, 0x0c, 0xbe,
  0x3c, 0x43, 0xc9, 0xbc, 0x3a, 0xd8, 0xa8, 0x3d, 0xca, 0x1f, 0xbd, 0x3d,
  0x68, 0x2e, 0x00, 0x3d, 0x25, 0xec, 0xaf, 0x3e, 0xbf, 0x5e, 0x22, 0x3e,
  0x8d, 0xdc, 0xb8, 0xbc, 0x5e, 0xb3, 0x35, 0x3e, 0x41, 0xf6, 0x4f, 0xbe,
  0x8f, 0x1e, 0xd6, 0x3d, 0xff, 0x7c, 0xcf, 0x3e, 0xb8, 0x16, 0x2e, 0x3d,
  0x2a, 0xe5, 0x2e, 0xbd, 0x25, 0x86, 0x8d, 0xbb, 0x6d, 0x25, 0x9a, 0xbe,
  0x08, 0x26, 0x4f, 0x3d, 0x04, 0x6f, 0xe3, 0xbd, 0x0e, 0xcd, 0x65, 0x3e,
  0x45, 0x1d, 0x83, 0xbd, 0x75, 0x7f, 0x0d, 0xbf, 0xeb, 0x69, 0x65, 0x3d,
  0x36, 0x0c, 0x27, 0xbd, 0x07, 0x31, 0x93, 0xbe, 0x7b, 0x63, 0x12, 0x3f,
  0x99, 0xf5, 0x82, 0x3e, 0x5e, 0xa4, 0x20, 0xbd, 0xd5, 0x27, 0x62, 0x3d,
  0x43, 0x89, 0x03, 0xbf, 0xbf, 0x40, 0x6c, 0x3d, 0x65, 0xa5, 0xe3, 0xbd,
  0xbe, 0xf9, 0xe5, 0xbd, 0xdd, 0xb7, 0x22, 0xbe, 0x53, 0xbb, 0x74, 0x3e,
  0x3c, 0x8a, 0x3f, 0x3e, 0xe6, 0x66, 0xdb, 0x3d, 0x4f, 0xc5, 0xda, 0xbe,
  0x03, 0x4a, 0x20, 0xbb, 0x06, 0x7b, 0x75, 0xbe, 0x93, 0x50, 0x4a, 0xbe,
  0x03, 0x22, 0xef, 0x3c, 0xc6, 0x7c, 0x5d, 0x3d, 0x6e, 0x35, 0x80, 0x3e,
  0x06, 0x99, 0x55, 0x3d, 0xaf, 0x0d, 0xd2, 0xbe, 0xf3, 0x56, 0xf1, 0xbd,
  0xd2, 0xaf, 0x1f, 0xbd, 0xa0, 0x04, 0x9f, 0xbe, 0xf0, 0x1f, 0xf5, 0x3e,
  0xe9, 0x8e, 0x71, 0x3d, 0x09, 0x2a, 0x95, 0xbe, 0xb9, 0xcd, 0x99, 0x3e,
  0x77, 0x9e, 0x53, 0xbe, 0x96, 0xb5, 0xa7, 0xbe, 0x5e, 0x29, 0xed, 0xbd,
  0x74, 0x45, 0x44, 0xbe, 0x35, 0xaf, 0xd2, 0xbd, 0x58, 0x63, 0xe6, 0xbd,
  0xa6, 0xfa, 0x1d, 0xbe, 0xeb, 0xa5, 0xb1, 0x3e, 0xb0, 0xaf, 0xff, 0xbd,
  0x08, 0x43, 0x1c, 0xbd, 0xea, 0xe3, 0xb6, 0xbd, 0x98, 0x06, 0x00, 0xbd,
  0xa3, 0xcb, 0xd2, 0x3d, 0x87, 0x52, 0x19, 0x3e, 0xef, 0x99, 0x56, 0xbd,
  0x39, 0x07, 0xad, 0xbe, 0x82, 0x47, 0x34, 0x3d, 0x97, 0xc4, 0xd9, 0x3d,
  0x50, 0x1d, 0x80, 0xbd, 0x3b, 0x7c, 0xed, 0xbc, 0xd7, 0xde, 0x1e, 0xbe,
  0x29, 0xb5, 0x87, 0xbd, 0xc1, 0x35, 0x61, 0x3e, 0xcf, 0x28, 0x69, 0xbe,
  0xb5, 0x6a, 0xdb, 0x3d, 0xe2, 0xdd, 0xff, 0xff, 0x10, 0x00, 0x00, 0x00,
  0x0a, 0x00, 0x00, 0x00, 0x1c, 0x00, 0x00, 0x00, 0x38, 0x00, 0x00, 0x00,
  0x04, 0x00, 0x00, 0x00, 0x10, 0x00, 0x00, 0x00, 0x04, 0x00, 0x00, 0x00,
  0x01, 0x00, 0x00, 0x00, 0x08, 0x00, 0x00, 0x00, 0x1a, 0x00, 0x00, 0x00,
  0x73, 0x65, 0x71, 0x75, 0x65, 0x6e, 0x74, 0x69, 0x61, 0x6c, 0x2f, 0x63,
  0x6f, 0x6e, 0x76, 0x32, 0x64, 0x5f, 0x31, 0x2f, 0x43, 0x6f, 0x6e, 0x76,
  0x32, 0x44, 0x00, 0x00, 0x58, 0xdd, 0xff, 0xff, 0x62, 0xde, 0xff, 0xff,
  0x04, 0x00, 0x00, 0x00, 0x80, 0x01, 0x00, 0x00, 0x8d, 0x3e, 0xa7, 0xbe,
  0x16, 0xed, 0x8d, 0xbc, 0x0e, 0xa1, 0xd8, 0x3d, 0xa4, 0x66, 0x75, 0xbe,
  0x3f, 0x6a, 0x10, 0xbe, 0xef, 0x3d, 0xad, 0xbd, 0x67, 0xb2, 0x80, 0x3e,
  0x3d, 0x42, 0xa8, 0x3d, 0xf8, 0x6b, 0x57, 0x3b, 0x45, 0x88, 0xae, 0x3e,
  0xc1, 0xe6, 0x07, 0x3e, 0x07, 0x49, 0x9b, 0x3d, 0xb6, 0x69, 0x4a, 0x3e,
  0x1a, 0xa1, 0x29, 0x3e, 0xe9, 0x86, 0x01, 0xbe, 0xe3, 0x84, 0x2b, 0x3d,
  0xd5, 0x3c, 0x1e, 0x3e, 0x81, 0x6d, 0xc8, 0xbd, 0x0e, 0x77, 0x05, 0x3d,
  0xd1, 0xa1, 0x2e, 0xbe, 0x40, 0xad, 0xc3, 0x3c, 0x5c, 0x92, 0x37, 0x3e,
  0x7d, 0xce, 0xc1, 0xba, 0x2b, 0xef, 0x9f, 0x3d, 0x5e, 0x94, 0xef, 0xbd,
  0x03, 0xbf, 0xe0, 0xbc, 0xa0, 0x6b, 0x91, 0xbc, 0x41, 0x6a, 0xdb, 0xbd,
  0xb4, 0xf7, 0xf3, 0xbb, 0x3a, 0x2a, 0xdd, 0x3c, 0x8e, 0x50, 0x38, 0xbc,
  0x62, 0xad, 0xa8, 0x3a, 0xbb, 0xd3, 0x32, 0x3d, 0x24, 0x76, 0x9f, 0xbc,
  0xd5, 0x6d, 0x2b, 0x3d, 0x6f, 0x28, 0xf0, 0x3d, 0x18, 0x22, 0x39, 0xbd,
  0xbd, 0xdf, 0x1f, 0xbe, 0x47, 0xf4, 0x96, 0xbd, 0x5c, 0x15, 0x1e, 0xbe,
  0xf8, 0x5b, 0x76, 0xbe, 0xd0, 0x52, 0x7f, 0xbe, 0x40, 0x9a, 0x3a, 0x3d,
  0xcf, 0x4f, 0x67, 0x3e, 0x3e, 0x33, 0x1d, 0x3e, 0xa3, 0x20, 0x49, 0x3e,
  0xaf, 0xb1, 0x7d, 0x3e, 0x4d, 0x73, 0xac, 0x3e, 0x48, 0xe7, 0x98, 0xbd,
  0x0b, 0xd7, 0x74, 0xbe, 0x2a, 0x9a, 0x11, 0xbe, 0x52, 0x45, 0xf2, 0x3e,
  0xae, 0x65, 0xb2, 0x3d, 0x74, 0x45, 0x60, 0x3c, 0xf5, 0x34, 0xc8, 0x3d,
  0x4d, 0xb8, 0x7a, 0x3d, 0x6e, 0xa9, 0x4f, 0x3e, 0xd3, 0x61, 0xec, 0xbd,
  0xde, 0x2b, 0x60, 0x3e, 0xac, 0xc0, 0x5c, 0xbe, 0xb2, 0x96, 0x5c, 0xbd,
  0xe5, 0x8f, 0x11, 0x3e, 0x33, 0x57, 0x96, 0xbe, 0xab, 0xa7, 0x74, 0xbe,
  0x14, 0xcb, 0xa4, 0x3d, 0xdb, 0xfd, 0x34, 0xbe, 0x6b, 0x0a, 0xac, 0x3d,
  0x74, 0xda, 0x03, 0xbe, 0x7d, 0x25, 0x94, 0xbd, 0xca, 0x4d, 0x54, 0x3d,
  0xbc, 0x77, 0x6b, 0xbe, 0x25, 0x24, 0x75, 0x3e, 0x95, 0x3a, 0xbc, 0x3e,
  0x02, 0x1e, 0xa1, 0xbd, 0x54, 0x94, 0x00, 0xbe, 0x5f, 0xd1, 0xba, 0x3e,
  0x11, 0x1f, 0x69, 0x3e, 0x3a, 0x80, 0x9a, 0x3d, 0x4d, 0xda, 0x04, 0xbd,
  0x58, 0x2d, 0x59, 0xbd, 0x37, 0x6b, 0xcf, 0x3c, 0xf4, 0x51, 0xdc, 0xbe,
  0x39, 0x70, 0x2a, 0xbe, 0x88, 0xfd, 0x9a, 0xbb, 0x7c, 0x73, 0x89, 0xbd,
  0x89, 0x26, 0x8e, 0x3c, 0x37, 0xb7, 0x01, 0x3e, 0x0e, 0x59, 0x20, 0xbd,
  0x83, 0xb2, 0xce, 0x3c, 0x39, 0xdf, 0x58, 0x3d, 0x43, 0xbc, 0x14, 0xbd,
  0xc1, 0x04, 0x1a, 0x3d, 0x51, 0x20, 0x62, 0x3b, 0x38, 0x19, 0x9f, 0xbc,
  0x74, 0x6f, 0x94, 0x3d, 0xe4, 0x7b, 0xd7, 0x3c, 0xba, 0xdf, 0xff, 0xff,
  0x10, 0x00, 0x00, 0x00, 0x09, 0x00, 0x00, 0x00, 0x1c, 0x00, 0x00, 0x00,
  0x38, 0x00, 0x00, 0x00, 0x04, 0x00, 0x00, 0x00, 0x08, 0x00, 0x00, 0x00,
  0x04, 0x00, 0x00, 0x00, 0x03, 0x00, 0x00, 0x00, 0x01, 0x00, 0x00, 0x00,
  0x18, 0x00, 0x00, 0x00, 0x73, 0x65, 0x71, 0x75, 0x65, 0x6e, 0x74, 0x69,
  0x61, 0x6c, 0x2f, 0x63, 0x6f, 0x6e, 0x76, 0x32, 0x64, 0x2f, 0x43, 0x6f,
  0x6e, 0x76, 0x32, 0x44, 0x00, 0x00, 0x00, 0x00, 0x30, 0xdf, 0xff, 0xff,
  0x3a, 0xe0, 0xff, 0xff, 0x04, 0x00, 0x00, 0x00, 0x00, 0x01, 0x00, 0x00,
  0xc1, 0xfb, 0x83, 0x3e, 0x4c, 0x58, 0x13, 0x3e, 0x55, 0x6e, 0x9a, 0x3e,
  0x56, 0x4c, 0xbc, 0x3d, 0xdf, 0x94, 0xe3, 0x3e, 0x96, 0xb9, 0xcf, 0xbe,
  0x37, 0x35, 0xee, 0xbd, 0x8c, 0x58, 0x8c, 0xbe, 0x94, 0x0a, 0x8d, 0x3d,
  0x56, 0x8f, 0x3c, 0x3d, 0x85, 0x9b, 0x85, 0x3d, 0x18, 0x9b, 0x97, 0x3d,
  0xc0, 0x10, 0xe6, 0x3d, 0x87, 0x40, 0xc7, 0x3d, 0xa1, 0x8b, 0x74, 0xbd,
  0xa6, 0x9c, 0x51, 0x3c, 0x0a, 0xb6, 0x9a, 0x3e, 0xe0, 0xc2, 0x3b, 0x3e,
  0xd1, 0xb7, 0xb0, 0x3e, 0x48, 0x5e, 0x12, 0x3d, 0x5e, 0x0d, 0x8f, 0x3b,
  0x48, 0x83, 0xcc, 0xbc, 0x4e, 0x1d, 0xbe, 0x3c, 0x50, 0x86, 0x90, 0xbe,
  0xd6, 0xd3, 0xce, 0x3d, 0xd4, 0x61, 0x64, 0x3c, 0x7d, 0xd3, 0xc8, 0x3d,
  0xe5, 0x29, 0x98, 0xbc, 0x78, 0x3a, 0x94, 0x3d, 0x36, 0x41, 0x8f, 0xbc,
  0xe2, 0x8c, 0x4b, 0xbd, 0x6e, 0xfb, 0x32, 0xbd, 0x02, 0x3a, 0x83, 0x3e,
  0x3d, 0x92, 0x32, 0x3e, 0xf2, 0xb7, 0x86, 0x3e, 0x13, 0x05, 0x60, 0xbc,
  0x75, 0x47, 0xa4, 0xbe, 0xcd, 0x04, 0x9e, 0xbe, 0xbb, 0x99, 0x45, 0xbe,
  0x63, 0x0a, 0x1d, 0xbe, 0x50, 0x03, 0xc2, 0x3a, 0x8c, 0x86, 0x14, 0x3e,
  0x34, 0xd1, 0x5c, 0xbb, 0x5e, 0xd2, 0xab, 0xbe, 0x26, 0x0c, 0x08, 0x3e,
  0x7b, 0xfe, 0xc2, 0x3d, 0xbf, 0x0a, 0xaa, 0xbd, 0x46, 0x5a, 0x99, 0xbd,
  0xd6, 0xa3, 0x79, 0x3e, 0x83, 0xc1, 0xed, 0x3d, 0x9a, 0xe3, 0x94, 0x3e,
  0x0e, 0x84, 0x84, 0x3a, 0x1e, 0x32, 0xce, 0x3e, 0xf5, 0x53, 0x5d, 0x3e,
  0xde, 0x2d, 0xc0, 0x3e, 0xe9, 0x2a, 0x77, 0xbe, 0x2a, 0xee, 0x2b, 0x3a,
  0xe9, 0xec, 0xa1, 0x3d, 0x40, 0xd6, 0xea, 0x3c, 0x5b, 0x42, 0xa2, 0x3d,
  0x47, 0x3d, 0x98, 0xbd, 0x61, 0xe2, 0x86, 0xbe, 0x95, 0xb6, 0x40, 0x3d,
  0x63, 0xda, 0x4d, 0xbd, 0x12, 0xe1, 0xff, 0xff, 0x10, 0x00, 0x00, 0x00,
  0x08, 0x00, 0x00, 0x00, 0x14, 0x00, 0x00, 0x00, 0x30, 0x00, 0x00, 0x00,
  0x02, 0x00, 0x00, 0x00, 0x04, 0x00, 0x00, 0x00, 0x10, 0x00, 0x00, 0x00,
  0x19, 0x00, 0x00, 0x00, 0x73, 0x65, 0x71, 0x75, 0x65, 0x6e, 0x74, 0x69,
  0x61, 0x6c, 0x2f, 0x64, 0x65, 0x6e, 0x73, 0x65, 0x5f, 0x31, 0x2f, 0x4d,
  0x61, 0x74, 0x4d, 0x75, 0x6c, 0x00, 0x00, 0x00, 0x80, 0xe0, 0xff, 0xff,
  0x8a, 0xe1, 0xff, 0xff, 0x04, 0x00, 0x00, 0x00, 0x00, 0x1c, 0x00, 0x00,
  0xec, 0x02, 0x8f, 0x3e, 0x66, 0xb8, 0x4e, 0x3e, 0x2a, 0x0f, 0x1b, 0xbe,
  0xf1, 0x90, 0xa2, 0xbe, 0xca, 0xf9, 0x8c, 0x3d, 0x88, 0xde, 0xa5, 0x3e,
  0xc4, 0x52, 0xfd, 0x3d, 0xab, 0xc6, 0x4f, 0x3b, 0x7a, 0x4e, 0x5f, 0xbe,
  0xa3, 0x56, 0x2e, 0x3c, 0xba, 0x9b, 0xc0, 0xbe, 0xf1, 0x2c, 0xcf, 0x3e,
  0xd8, 0x70, 0x7e, 0x3c, 0x58, 0x99, 0xdf, 0xbd, 0x03, 0xfd, 0xc2, 0x3d,
  0x41, 0x1c, 0x90, 0x3e, 0x93, 0x32, 0xdb, 0xbd, 0x46, 0xb3, 0xcf, 0xbd,
  0x1a, 0x86, 0xd1, 0xbb, 0xff, 0xed, 0x56, 0xbd, 0xc7, 0xf6, 0x76, 0xbc,
  0xd4, 0x0e, 0x9d, 0x3e, 0x06, 0x75, 0x3b, 0xbe, 0x76, 0xd3, 0xce, 0x3d,
  0x37, 0xfb, 0x6a, 0xbe, 0xa0, 0xb4, 0xec, 0xbd, 0xe3, 0x42, 0x0e, 0xbe,
  0xd3, 0xb6, 0xe7, 0xbc, 0x1a, 0x23, 0x27, 0x3c, 0x0b, 0x81, 0x7c, 0x3e,
  0xab, 0x61, 0xb3, 0xbc, 0xdf, 0xbd, 0xd7, 0x3d, 0xf6, 0xba, 0x81, 0xbe,
  0x3d, 0x64, 0x16, 0xbf, 0xba, 0xe6, 0x82, 0x3d, 0x70, 0x49, 0x88, 0xbd,
  0xd1, 0xd2, 0x10, 0xbe, 0xde, 0xca, 0xf7, 0xbe, 0x26, 0xe4, 0x96, 0xbe,
  0x6d, 0x6f, 0xb1, 0x3d, 0xdf, 0xcc, 0x81, 0xbe, 0x2e, 0x31, 0x13, 0xbe,
  0xa4, 0xf8, 0xc5, 0xbe, 0x1f, 0xeb, 0x8f, 0xbe, 0x9e, 0x94, 0xfb, 0x3d,
  0xdc, 0x02, 0x8e, 0xbc, 0x61, 0xbe, 0x10, 0xbf, 0x4e, 0x62, 0x0e, 0xbf,
  0xe4, 0x5d, 0x65, 0x3d, 0x97, 0x19, 0xc3, 0xbe, 0xcb, 0xf9, 0x47, 0x3d,
  0x20, 0xad, 0x55, 0x3e, 0xd6, 0x7c, 0x39, 0xbe, 0x42, 0x9d, 0x2e, 0xbe,
  0xcb, 0x54, 0x22, 0xbe, 0x94, 0x82, 0x8d, 0xbe, 0xb7, 0xca, 0x43, 0xbe,
  0x32, 0x33, 0xeb, 0xbd, 0x81, 0xd0, 0x77, 0xbe, 0x9a, 0x9c, 0x0a, 0xbe,
  0x12, 0xdf, 0x02, 0xbf, 0x8b, 0xb4, 0x1c, 0x3e, 0x74, 0x62, 0x9f, 0xbe,
  0xf5, 0x07, 0xb5, 0xbe, 0x0c, 0xc9, 0xb1, 0x3a, 0x6d, 0xd7, 0xc1, 0xbe,
  0x55, 0x9b, 0x0d, 0xbc, 0xc1, 0xec, 0x00, 0x3e, 0xfc, 0x5e, 0x8c, 0xbd,
  0x13, 0xf2, 0x80, 0xbe, 0x6c, 0x1f, 0x41, 0xbd, 0xdb, 0xa2, 0xf8, 0x3b,
  0xe0, 0x66, 0x2e, 0xbe, 0x35, 0xdb, 0x25, 0xbe, 0xb6, 0xf6, 0x6f, 0xbe,
  0xa6, 0x99, 0x69, 0x3c, 0xd5, 0x79, 0x48, 0xbc, 0x93, 0x17, 0x86, 0x3d,
  0x1f, 0x18, 0x91, 0xbe, 0x81, 0x90, 0x7c, 0xbe, 0x89, 0x5d, 0x01, 0x3d,
  0x66, 0x8b, 0x59, 0xbe, 0xb4, 0x27, 0x86, 0xbb, 0xe8, 0x72, 0x64, 0x3e,
  0x3b, 0x8e, 0x08, 0xbe, 0x7c, 0x28, 0x8e, 0xbd, 0x87, 0x52, 0x01, 0xbe,
  0xcd, 0x0e, 0xb6, 0xbc, 0xca, 0x71, 0x3f, 0xbe, 0xfb, 0xeb, 0xb5, 0xbd,
  0xd6, 0x90, 0x15, 0xbe, 0xa4, 0x02, 0x3e, 0xbd, 0xda, 0xe1, 0x21, 0xbe,
  0x0e, 0xfb, 0x98, 0x3d, 0x27, 0xfd, 0xad, 0xbe, 0xac, 0x54, 0xba, 0xbd,
  0x53, 0x0c, 0xdc, 0xbc, 0xe8, 0x7e, 0x72, 0xbe, 0x13, 0x29, 0x2b, 0xbe,
  0x93, 0xc2, 0x71, 0x3d, 0x39, 0x0c, 0x37, 0xbe, 0x92, 0xe7, 0x6b, 0xbc,
  0x2e, 0x3a, 0xd3, 0xbe, 0x87, 0x3c, 0x87, 0x3d, 0x49, 0x1b, 0x89, 0xbd,
  0xa7, 0xf2, 0x5b, 0x3c, 0xb3, 0x9d, 0x37, 0xbd, 0xb3, 0xd2, 0x4f, 0xbd,
  0x66, 0x51, 0x4f, 0x3d, 0x79, 0xa5, 0x35, 0xbd, 0x68, 0x4b, 0x25, 0xbe,
  0x0f, 0x2f, 0x4f, 0xbd, 0x0d, 0x33, 0x92, 0x3e, 0x0d, 0x05, 0x39, 0x3c,
  0xce, 0xc6, 0x54, 0x3e, 0x54, 0xcf, 0x60, 0xbf, 0xee, 0xc6, 0x40, 0xbe,
  0x36, 0xa1, 0x29, 0x3e, 0x33, 0x7e, 0x98, 0x3d, 0x55, 0x80, 0xed, 0xbd,
  0x68, 0xde, 0x74, 0x3e, 0x97, 0xd8, 0x04, 0x3b, 0xcc, 0xec, 0x06, 0x3e,
  0x0e, 0xd0, 0x01, 0x3e, 0xbc, 0x9d, 0xa2, 0x3d, 0x16, 0x41, 0x0c, 0xbe,
  0x79, 0x44, 0x07, 0x3e, 0x14, 0x11, 0x2d, 0x3e, 0xa2, 0x15, 0x15, 0xbc,
  0xca, 0xa3, 0x50, 0x3c, 0x67, 0x6b, 0x4e, 0x3d, 0x66, 0xe5, 0x03, 0xbf,
  0xb8, 0xc0, 0x16, 0x3c, 0xb5, 0x69, 0xa2, 0x3e, 0x01, 0xd7, 0x19, 0xbc,
  0xe1, 0x28, 0x6f, 0x3e, 0x1a, 0x79, 0x2e, 0x3e, 0xfb, 0xa0, 0x4f, 0xbd,
  0xd3, 0xc9, 0x43, 0x3e, 0x27, 0xa6, 0x1d, 0xbe, 0xc5, 0xc5, 0xe8, 0x3d,
  0xeb, 0xb8, 0x8b, 0x3d, 0x0d, 0x47, 0xee, 0xbd, 0x79, 0x24, 0x78, 0x3e,
  0xa5, 0xc4, 0x03, 0xbe, 0xdd, 0xe5, 0xde, 0xbe, 0x59, 0xa4, 0x8e, 0xbc,
  0x9a, 0x03, 0x16, 0xbf, 0x4d, 0x0f, 0x05, 0xbd, 0x6a, 0x43, 0xe4, 0xbd,
  0xbd, 0x0c, 0x70, 0xbc, 0xe2, 0xc5, 0x64, 0x3e, 0x40, 0xdd, 0x82, 0x3e,
  0x17, 0x79, 0x74, 0xbd, 0xfb, 0xc1, 0x6e, 0x3e, 0x1f, 0x3f, 0x7d, 0xbc,
  0xca, 0xce, 0x26, 0x3e, 0x76, 0x2d, 0xdf, 0xbd, 0x5d, 0x97, 0x02, 0xbf,
  0x91, 0x95, 0x92, 0xbd, 0x4f, 0x9b, 0x87, 0xbe, 0x68, 0x7d, 0xb4, 0xbe,
  0x97, 0x2b, 0xcc, 0xbd, 0x5b, 0x59, 0xb6, 0xbe, 0x1a, 0x0f, 0xc1, 0xbd,
  0x2b, 0x25, 0x03, 0xbe, 0x69, 0x58, 0x50, 0x3e, 0x64, 0x86, 0x30, 0xbe,
  0xe8, 0x84, 0x6e, 0x3e, 0x8e, 0x1e, 0xc0, 0xbc, 0xf5, 0x11, 0x17, 0x3e,
  0x6a, 0x3b, 0x98, 0xbc, 0x16, 0x0b, 0x9f, 0xbe, 0x94, 0xaf, 0xb0, 0xbd,
  0x9b, 0xb6, 0xaf, 0xbe, 0xb3, 0x7a, 0xd2, 0xbe, 0x49, 0xcc, 0x0c, 0xbe,
  0xcf, 0xb0, 0x8b, 0xbe, 0x41, 0x76, 0xbf, 0xbd, 0xe7, 0xbb, 0xff, 0xbe,
  0x62, 0x45, 0x33, 0x3e, 0xa2, 0x4c, 0x11, 0xbd, 0x2e, 0x70, 0xb8, 0x3d,
  0xf4, 0x56, 0x0b, 0xbe, 0x41, 0xf3, 0x63, 0x3e, 0x1b, 0x5a, 0x20, 0xbd,
  0x05, 0x16, 0xa1, 0x3e, 0x34, 0xb5, 0x82, 0xbd, 0x05, 0x7d, 0x2a, 0xbe,
  0x57, 0x79, 0xa0, 0xbe, 0x09, 0x20, 0xc7, 0xbe, 0xed, 0xe0, 0x2e, 0xbe,
  0xff, 0x10, 0xbd, 0xbe, 0xdf, 0x94, 0x5e, 0x3d, 0x0c, 0xe2, 0x03, 0xbe,
  0xec, 0x18, 0xa5, 0xbe, 0xd4, 0x1d, 0x53, 0xbe, 0xb3, 0xd2, 0xec, 0xbd,
  0x83, 0x60, 0x9c, 0x3e, 0xa7, 0xf3, 0xad, 0xbc, 0x0b, 0x58, 0x45, 0x3e,
  0x2c, 0x84, 0x5f, 0xbd, 0x2c, 0xd0, 0x00, 0xbe, 0x8d, 0x2f, 0x0b, 0xbe,
  0x2f, 0x22, 0x70, 0x3d, 0xf4, 0x1d, 0xea, 0x3c, 0x29, 0x0a, 0x82, 0xbe,
  0x16, 0x13, 0x91, 0xbe, 0xcc, 0x41, 0xaf, 0x3d, 0x49, 0xfd, 0x2f, 0x3e,
  0xde, 0xb4, 0x68, 0x3d, 0xfb, 0x8f, 0xa8, 0xbe, 0x11, 0x13, 0x1b, 0xbe,
  0xcc, 0x74, 0xc1, 0x3d, 0x89, 0xf4, 0xd8, 0x3e, 0x25, 0x82, 0xf6, 0xbd,
  0x85, 0x16, 0xd6, 0xbd, 0x9b, 0xcf, 0x26, 0xbd, 0xe0, 0x52, 0xd4, 0xbc,
  0xb8, 0xd3, 0x2a, 0x3a, 0x45, 0x91, 0xcb, 0xbd, 0x1a, 0x1b, 0xf9, 0xb8,
  0x0c, 0x37, 0x47, 0x3e, 0xe6, 0xf6, 0xff, 0x3b, 0xf7, 0xc4, 0x97, 0xbe,
  0xc6, 0x50, 0xb8, 0xbd, 0xad, 0x3d, 0xdb, 0xbe, 0xef, 0x91, 0x13, 0x3c,
  0x18, 0xa6, 0xe5, 0x3d, 0x61, 0x0f, 0x62, 0x3c, 0xf3, 0x96, 0xbe, 0xbe,
  0xee, 0xa9, 0xb3, 0xbe, 0xd4, 0xcb, 0x3c, 0xbe, 0x4a, 0x12, 0xc0, 0xbd,
  0xdc, 0xe5, 0x67, 0xbe, 0xdc, 0xc0, 0x03, 0xbe, 0x95, 0xe4, 0x73, 0xbe,
  0x0e, 0x17, 0x0c, 0xbe, 0x8d, 0x2e, 0x17, 0xbe, 0xc7, 0x00, 0xf3, 0xbe,
  0x09, 0x1a, 0x90, 0xbe, 0x52, 0x12, 0x7b, 0xbb, 0xc3, 0x57, 0x01, 0xbf,
  0xc6, 0xfb, 0xd0, 0xbd, 0x96, 0x50, 0xe9, 0xbd, 0xf2, 0xca, 0x48, 0xbe,
  0x85, 0x38, 0xee, 0xbc, 0x08, 0x4c, 0xad, 0xbd, 0xe2, 0x0d, 0x8d, 0xbe,
  0x9d, 0x09, 0x0f, 0xbc, 0xd2, 0x2a, 0x9c, 0xbe, 0x6d, 0xb4, 0x84, 0x3c,
  0x3d, 0x86, 0x11, 0xbe, 0xb4, 0x5d, 0x8f, 0xbd, 0x0d, 0xec, 0x41, 0xbe,
  0xbc, 0xf2, 0x1f, 0xbd, 0xe9, 0xeb, 0xc5, 0xbd, 0x46, 0x43, 0x51, 0xbe,
  0x4a, 0xa9, 0xdc, 0xbe, 0x18, 0x69, 0x29, 0x3c, 0xfc, 0x9c, 0xfe, 0xbe,
  0xf3, 0x53, 0xbc, 0x3b, 0x91, 0x74, 0xce, 0xbe, 0x19, 0x6c, 0xa7, 0xbd,
  0x53, 0x93, 0xa2, 0xbe, 0x6d, 0x32, 0x47, 0x3c, 0xb3, 0xc3, 0x18, 0xbe,
  0xff, 0xd5, 0xca, 0xbc, 0xba, 0x40, 0xc1, 0xbe, 0x27, 0xcc, 0x2b, 0xbe,
  0xa6, 0x0d, 0xaa, 0xbe, 0xb5, 0x41, 0x69, 0xbe, 0x76, 0xff, 0x69, 0xbe,
  0x8a, 0x36, 0xb8, 0xbe, 0x74, 0x1f, 0x17, 0xbf, 0x42, 0xb4, 0xe4, 0x3c,
  0x4e, 0xf9, 0x1a, 0x3e, 0x0b, 0xc4, 0x20, 0xbe, 0xe8, 0x60, 0x8b, 0x3d,
  0x68, 0x9b, 0xba, 0xbe, 0xaa, 0xc8, 0xba, 0xbe, 0xd7, 0x8e, 0xc4, 0x3a,
  0x42, 0x37, 0x40, 0xbe, 0x63, 0x78, 0x9b, 0xbd, 0x2d, 0xd9, 0xe1, 0xbe,
  0xda, 0x44, 0xc1, 0xbe, 0xce, 0x59, 0xcc, 0xbe, 0x16, 0x90, 0xc3, 0xbe,
  0x91, 0x3c, 0xa5, 0x3e, 0xb8, 0x51, 0x07, 0x3e, 0x94, 0xd9, 0xe7, 0xbe,
  0x27, 0x64, 0x6a, 0x3d, 0x31, 0x85, 0x74, 0x3e, 0xb2, 0x06, 0xfc, 0x3e,
  0x8c, 0x88, 0x02, 0x3e, 0x70, 0xe9, 0x75, 0x3d, 0xf9, 0x6d, 0x41, 0xbe,
  0x09, 0x6e, 0xe4, 0xbc, 0xeb, 0x50, 0x0b, 0xbd, 0xda, 0x99, 0x9a, 0xbd,
  0x7f, 0x1d, 0x3f, 0xbf, 0x10, 0x12, 0x85, 0x3c, 0xb7, 0xb4, 0xf9, 0x3c,
  0xd9, 0xd8, 0x01, 0xbc, 0x9a, 0xa9, 0x03, 0x3f, 0xf0, 0xb0, 0x6c, 0x3d,
  0x6a, 0x4b, 0x93, 0xbe, 0x48, 0xbb, 0xd7, 0xbc, 0xda, 0xf6, 0x24, 0xbe,
  0xbb, 0x54, 0xdc, 0x3e, 0x08, 0x5b, 0x37, 0x3e, 0x50, 0xbc, 0xb0, 0x3b,
  0x89, 0xa8, 0xa1, 0xbe, 0x97, 0xdc, 0x98, 0x3d, 0xaf, 0xdf, 0x80, 0xbe,
  0x98, 0xc1, 0x87, 0xbb, 0xa7, 0xe7, 0x4f, 0xbe, 0xb1, 0xc4, 0xa9, 0x3d,
  0xeb, 0xcd, 0xe4, 0x3c, 0xb2, 0xaf, 0x4e, 0x3e, 0xbb, 0x7a, 0xf8, 0x3d,
  0x87, 0x12, 0xe4, 0x3d, 0x76, 0xe0, 0xbe, 0x3d, 0xca, 0xb9, 0xb3, 0xbd,
  0x80, 0xc6, 0x4b, 0xbd, 0xde, 0x35, 0x4b, 0x3e, 0xdb, 0x2f, 0x8e, 0x3e,
  0x7e, 0x51, 0x2e, 0xbd, 0xdb, 0x5f, 0x4d, 0xbe, 0xaa, 0x8c, 0x98, 0xbc,
  0xbd, 0x01, 0x33, 0xbe, 0x6c, 0xce, 0x19, 0x3d, 0xc6, 0x63, 0xdb, 0xbc,
  0xa8, 0x57, 0x1f, 0x3e, 0xff, 0xa4, 0xc4, 0x3d, 0x94, 0x2b, 0xef, 0x3d,
  0x35, 0xb1, 0xa6, 0xbe, 0x3b, 0xee, 0x64, 0x3d, 0xd1, 0x4c, 0xcd, 0xbd,
  0xa2, 0x12, 0x0d, 0xbe, 0xb6, 0x88, 0x80, 0x3e, 0x1e, 0x5e, 0xde, 0xbd,
  0x54, 0xdd, 0xd0, 0xbd, 0x16, 0x24, 0x79, 0x3c, 0xba, 0xdb, 0x57, 0xbe,
  0xd5, 0x23, 0x99, 0xbe, 0x38, 0x94, 0x27, 0xbe, 0x5a, 0x53, 0xbd, 0xbe,
  0x78, 0x96, 0xa2, 0x3e, 0xfd, 0x54, 0xbb, 0x3d, 0x6d, 0x0e, 0x80, 0xbe,
  0xa6, 0x62, 0x6a, 0xbd, 0x01, 0xa7, 0x70, 0xbe, 0xaf, 0x0f, 0xdd, 0x3e,
  0xff, 0x76, 0xb4, 0xbd, 0xd5, 0x03, 0xbe, 0xbd, 0x5e, 0x84, 0x9d, 0x3e,
  0x37, 0x95, 0x98, 0xbe, 0x47, 0xfb, 0x85, 0x3c, 0x4d, 0x81, 0x60, 0x3d,
  0xb1, 0x40, 0xba, 0xba, 0xe5, 0xda, 0x77, 0xbe, 0xe7, 0xd0, 0x5e, 0xbd,
  0x7f, 0x46, 0xea, 0xbe, 0x0c, 0xe4, 0x47, 0x3e, 0x3d, 0x36, 0x1f, 0xbe,
  0x7e, 0x59, 0x0b, 0xbf, 0xfb, 0xdc, 0x39, 0xbb, 0xd2, 0x5e, 0xdc, 0x3d,
  0xda, 0x60, 0xe7, 0x3e, 0x31, 0x98, 0xaf, 0xbd, 0x2a, 0xc1, 0xa8, 0xbe,
  0x46, 0xc7, 0x9f, 0x3e, 0xe9, 0x17, 0x79, 0xbd, 0xbf, 0xb7, 0xe0, 0x3d,
  0xc2, 0xcd, 0xc9, 0x3d, 0x73, 0x54, 0x62, 0xbe, 0x9c, 0x99, 0x43, 0xbc,
  0x40, 0x84, 0x75, 0xba, 0xbe, 0xe4, 0xdb, 0x3d, 0x86, 0x9c, 0x7a, 0x3e,
  0xfa, 0x80, 0xe9, 0x3d, 0x94, 0x0c, 0x7a, 0xbe, 0x78, 0xce, 0x02, 0x3f,
  0xe8, 0xd1, 0x68, 0xbe, 0x3e, 0x6f, 0xfd, 0x3e, 0x93, 0xd9, 0xe8, 0x3c,
  0xf9, 0x29, 0xf2, 0xbd, 0x5d, 0x0a, 0x99, 0xbb, 0xb6, 0x91, 0x59, 0xbe,
  0xf7, 0x56, 0xb0, 0x3c, 0xc8, 0xd7, 0x35, 0x3e, 0x42, 0xeb, 0x65, 0xbc,
  0x6d, 0xc5, 0x95, 0x3c, 0x5d, 0xfd, 0x8a, 0xbd, 0x35, 0xc8, 0xb1, 0xbd,
  0x97, 0x75, 0xc2, 0x3e, 0x7e, 0xcc, 0x71, 0x3d, 0x37, 0x8a, 0x74, 0xbe,
  0xf9, 0x23, 0xdc, 0x3e, 0x9e, 0x12, 0x83, 0xbe, 0x06, 0x45, 0x80, 0x3e,
  0x49, 0xd2, 0x64, 0x3c, 0x97, 0x45, 0x61, 0xbe, 0x4e, 0x1b, 0xe3, 0x3e,
  0xc8, 0x07, 0xb7, 0xbe, 0xb9, 0x24, 0x4a, 0xbe, 0x34, 0x94, 0x9a, 0x3e,
  0xa5, 0x2b, 0x33, 0x3d, 0xdf, 0xf3, 0x03, 0xbe, 0x87, 0xfa, 0x88, 0x3b,
  0x24, 0x11, 0xce, 0xbe, 0xfc, 0x67, 0xa4, 0x3e, 0x3f, 0x5d, 0x7a, 0x3b,
  0x8c, 0x9f, 0xef, 0xbe, 0xa0, 0x19, 0x8c, 0x3c, 0x94, 0x79, 0x6d, 0xbe,
  0xcb, 0x81, 0x18, 0x3e, 0x46, 0xcd, 0xbb, 0xbc, 0x81, 0xd2, 0x6a, 0xbe,
  0xe8, 0xf2, 0x82, 0x3e, 0xaf, 0x1d, 0x34, 0xbe, 0xbb, 0xe5, 0xe5, 0xbb,
  0x88, 0x20, 0x47, 0x3e, 0x65, 0x28, 0xec, 0xbe, 0x6d, 0x05, 0x3c, 0xbd,
  0x66, 0x5c, 0x84, 0xbe, 0x2a, 0xb6, 0x9e, 0xbe, 0xea, 0xe6, 0x9a, 0x3e,
  0xb6, 0x4e, 0x15, 0x3e, 0x13, 0x83, 0xe7, 0xbe, 0xed, 0x36, 0x4f, 0xbc,
  0x84, 0x47, 0xa2, 0xbd, 0xd9, 0xd5, 0x4e, 0x3d, 0x2a, 0x96, 0x9a, 0x3b,
  0x00, 0x30, 0x89, 0xbe, 0x90, 0x25, 0x1c, 0x3e, 0xb3, 0x09, 0x9a, 0xbe,
  0x3a, 0x5a, 0x3d, 0xbe, 0x78, 0x08, 0xad, 0x3d, 0x81, 0x49, 0x0a, 0x3d,
  0xbe, 0x33, 0x5a, 0x3d, 0xb2, 0x8e, 0xca, 0x3b, 0xdb, 0xbd, 0x50, 0xbd,
  0x1b, 0x41, 0x29, 0x3e, 0x22, 0x65, 0x1a, 0xbe, 0x62, 0xb8, 0xa5, 0x3c,
  0xf7, 0x7a, 0x4f, 0xbe, 0x30, 0x5a, 0x6f, 0xbd, 0x9e, 0x7b, 0x39, 0xbe,
  0x37, 0xf6, 0x7a, 0xbe, 0x13, 0x8c, 0x4d, 0xbe, 0x85, 0x9a, 0x4c, 0xbe,
  0xf1, 0xf9, 0x13, 0xbe, 0x04, 0xce, 0xe1, 0xbd, 0x7c, 0x7f, 0x4c, 0x3d,
  0xa2, 0xe6, 0x89, 0xbc, 0x12, 0x5a, 0x2f, 0x3c, 0xf7, 0xaa, 0x28, 0x3c,
  0x3d, 0x53, 0xb3, 0xbd, 0x5f, 0x99, 0x3b, 0x3d, 0xa7, 0xa5, 0x4d, 0x3e,
  0xf5, 0x65, 0x93, 0xbc, 0xd5, 0xce, 0xeb, 0xbb, 0xd5, 0x3c, 0xa7, 0x3d,
  0xd7, 0x80, 0x37, 0xbe, 0x1c, 0xac, 0x8a, 0xbe, 0x54, 0xbc, 0xa5, 0x3c,
  0xeb, 0x0c, 0x14, 0xbd, 0x2b, 0xd5, 0x22, 0x3e, 0xdf, 0x72, 0x44, 0x3e,
  0x27, 0xc8, 0x8d, 0xbd, 0x04, 0xc0, 0xa7, 0xbd, 0x7f, 0xe0, 0x37, 0xbe,
  0xcc, 0x61, 0x2d, 0xbe, 0x10, 0xba, 0x13, 0xbe, 0x4a, 0xd4, 0xc6, 0xbc,
  0x4d, 0xd8, 0xae, 0xbd, 0xfe, 0xc2, 0x16, 0xbe, 0x16, 0xff, 0x36, 0xbe,
  0xda, 0xb6, 0x7b, 0xbe, 0x09, 0x43, 0x5c, 0xbe, 0xc6, 0x47, 0x79, 0xbe,
  0xa0, 0x8f, 0x15, 0x3e, 0x63, 0x61, 0xfb, 0x3c, 0x61, 0x41, 0x5f, 0xbd,
  0x0c, 0x82, 0x80, 0x3c, 0xfc, 0x9b, 0xb1, 0x3d, 0x4b, 0x41, 0x94, 0x3d,
  0xd1, 0xfa, 0x79, 0xbe, 0x90, 0x95, 0x2f, 0xbe, 0x35, 0xd5, 0x23, 0xbe,
  0x4f, 0xb3, 0x10, 0x3d, 0xb3, 0xc2, 0x73, 0xbd, 0xf8, 0x28, 0x2e, 0xbe,
  0x09, 0x42, 0x49, 0xbe, 0xcd, 0x0c, 0xa2, 0xbd, 0x7f, 0x2a, 0x2e, 0xbe,
  0x77, 0x41, 0x58, 0x3c, 0xae, 0xd2, 0x5a, 0xbb, 0xef, 0x00, 0x4c, 0xbd,
  0xe6, 0x2c, 0x35, 0x3e, 0x1d, 0x5a, 0xa0, 0xbd, 0x33, 0x4d, 0xd1, 0xbd,
  0xff, 0x71, 0x41, 0x3d, 0x42, 0xfe, 0x67, 0xbe, 0xa5, 0xbb, 0x81, 0x3b,
  0x1d, 0xbb, 0x82, 0xbd, 0xd5, 0x05, 0xfe, 0x3c, 0x69, 0x33, 0x29, 0xbe,
  0x61, 0xe6, 0xf2, 0x3d, 0x3c, 0x3f, 0x19, 0x3d, 0xca, 0x30, 0x60, 0xbe,
  0x4c, 0xd4, 0x32, 0x3d, 0x44, 0xe1, 0x94, 0xbe, 0x2f, 0x20, 0x6c, 0xbd,
  0x46, 0x16, 0x52, 0xbe, 0xf5, 0x88, 0x21, 0x3e, 0x96, 0x63, 0x15, 0xbe,
  0x68, 0x55, 0x09, 0xbc, 0xa6, 0x2a, 0xe9, 0x3d, 0xe4, 0x63, 0x37, 0xbe,
  0x42, 0xe6, 0x5c, 0xbc, 0xd8, 0xeb, 0x0c, 0xbe, 0x1b, 0x21, 0x06, 0x3c,
  0xcc, 0xd8, 0x52, 0x3d, 0xbf, 0x0e, 0x4c, 0x3e, 0xf2, 0x38, 0x70, 0xbe,
  0x0d, 0x7a, 0xde, 0x3d, 0x3e, 0xa5, 0xd1, 0xbc, 0x7b, 0xa8, 0xec, 0xbd,
  0x06, 0xfa, 0xe8, 0x3d, 0xf2, 0xad, 0x57, 0x3e, 0x7b, 0xea, 0x2b, 0x3e,
  0x4b, 0x6a, 0x3c, 0xbe, 0xaf, 0x1b, 0xb7, 0x3d, 0x36, 0x9b, 0x8d, 0xbd,
  0xa5, 0x40, 0x36, 0xbd, 0x05, 0xe6, 0x81, 0xbe, 0x72, 0x3d, 0x9b, 0xbd,
  0x34, 0x7a, 0x75, 0x3e, 0x1c, 0x93, 0xea, 0x3c, 0xc5, 0xde, 0x07, 0xbe,
  0x46, 0x34, 0xa4, 0xbd, 0x12, 0x46, 0x5d, 0xbb, 0xb4, 0xa6, 0xc6, 0xbd,
  0xe2, 0x58, 0x26, 0xbe, 0xa6, 0xfc, 0x1d, 0xbe, 0xc0, 0xaa, 0x2a, 0xbe,
  0xcc, 0xe5, 0x8c, 0xbd, 0x8c, 0x4a, 0x69, 0x3d, 0xf5, 0xac, 0xd6, 0xbc,
  0xa9, 0xfd, 0x05, 0xbe, 0xf2, 0x0d, 0xe8, 0x3d, 0xad, 0xcb, 0x90, 0xbe,
  0xed, 0x88, 0xa7, 0xbe, 0xad, 0xa2, 0xf8, 0xbd, 0x45, 0x8f, 0x13, 0xbd,
  0x31, 0x47, 0x1d, 0x3e, 0x43, 0x2c, 0x83, 0xbe, 0xfd, 0x78, 0x80, 0xbd,
  0x15, 0x0d, 0x10, 0x3c, 0xf5, 0x08, 0xbe, 0xbd, 0xa2, 0xb2, 0x45, 0xbe,
  0x66, 0x1f, 0x13, 0x3e, 0x36, 0x7b, 0x39, 0x3d, 0xb4, 0xb2, 0x35, 0x3c,
  0x12, 0x89, 0x64, 0xbe, 0xb6, 0xbf, 0x57, 0xbd, 0x66, 0x1b, 0x9d, 0xbe,
  0xb1, 0x12, 0xf8, 0xbd, 0x7d, 0xdf, 0x1a, 0xbe, 0xd1, 0x5c, 0x6b, 0xbe,
  0xe3, 0x8e, 0x70, 0xbe, 0xe7, 0x45, 0x8a, 0x3d, 0xa6, 0xb1, 0xa1, 0xbd,
  0xfc, 0x1b, 0xb0, 0x3c, 0x6e, 0x50, 0xcb, 0xbb, 0xe9, 0x07, 0xc5, 0xbe,
  0x5a, 0x94, 0xec, 0x3d, 0x82, 0x2f, 0x5d, 0xbd, 0x63, 0x77, 0x61, 0x3a,
  0x15, 0x0e, 0xf7, 0x3d, 0x30, 0x6f, 0x4d, 0xbd, 0x37, 0xe7, 0x6c, 0xbd,
  0xbc, 0xe2, 0x06, 0x3d, 0x4b, 0xdf, 0x0d, 0xbe, 0x5e, 0x45, 0x63, 0xbc,
  0xa7, 0x1d, 0x5e, 0xbe, 0x4b, 0xff, 0xcd, 0x3d, 0x51, 0xe1, 0xa9, 0x3d,
  0xce, 0x2a, 0x24, 0xbe, 0x41, 0x19, 0x05, 0xbe, 0xc3, 0x92, 0xd7, 0xbd,
  0x5a, 0xd6, 0x70, 0xbe, 0xd9, 0x70, 0xe7, 0x3d, 0x94, 0xfd, 0x0b, 0x3e,
  0x8a, 0x58, 0x4f, 0x3e, 0x57, 0xd3, 0x0c, 0xbe, 0xb3, 0x72, 0x61, 0xbd,
  0x92, 0x13, 0x8d, 0x3d, 0x7c, 0xe8, 0x44, 0xbe, 0x4e, 0x59, 0xd4, 0xbd,
  0xf3, 0x66, 0x4d, 0xbe, 0x5b, 0x2b, 0xe7, 0xbd, 0x21, 0xba, 0xd3, 0xbd,
  0x80, 0xf0, 0x46, 0x3e, 0xd2, 0x43, 0x4d, 0xbe, 0xae, 0x91, 0x57, 0xbd,
  0xdb, 0xd1, 0xf5, 0xbd, 0x2c, 0xa1, 0xe9, 0xbd, 0x8d, 0x53, 0x39, 0x3e,
  0x9a, 0x7d, 0x87, 0xbd, 0x06, 0x8f, 0x9e, 0x3c, 0xe7, 0x33, 0x32, 0xbe,
  0x5f, 0x8d, 0x27, 0xbe, 0x1d, 0x84, 0x4b, 0x3d, 0xad, 0x12, 0x31, 0x3d,
  0x75, 0x09, 0x10, 0xbe, 0x96, 0x77, 0x00, 0xbe, 0xf5, 0xfd, 0x2d, 0x3e,
  0xb7, 0xc2, 0x28, 0x3d, 0x77, 0x0c, 0x45, 0xbe, 0x21, 0x45, 0x75, 0xbe,
  0x70, 0x9b, 0x50, 0xbe, 0x58, 0x40, 0x73, 0x3d, 0x81, 0x3d, 0xc1, 0xbd,
  0x3c, 0x0c, 0x56, 0xbe, 0x71, 0x0a, 0x23, 0xbe, 0x38, 0x73, 0x50, 0x3e,
  0x76, 0xa6, 0x58, 0x3c, 0xe3, 0x68, 0xd3, 0xbd, 0xb2, 0xe4, 0xa9, 0x3c,
  0x6b, 0x2a, 0x70, 0xbd, 0xc4, 0xa9, 0x62, 0xbe, 0x79, 0x5b, 0x2a, 0xbe,
  0xb7, 0xc7, 0x0a, 0xbe, 0xfc, 0xdd, 0x08, 0xbe, 0xc5, 0xf3, 0x57, 0xbd,
  0x2a, 0xef, 0x69, 0xbc, 0x87, 0x9d, 0x71, 0xbe, 0x8d, 0xae, 0xe8, 0xbd,
  0xb9, 0x4e, 0x3a, 0xbe, 0x23, 0x2e, 0x08, 0x3e, 0xbb, 0x11, 0x86, 0x3c,
  0x3b, 0xc4, 0x30, 0xbe, 0x72, 0xbc, 0x9d, 0x3d, 0xf7, 0xce, 0xc5, 0x3d,
  0x9b, 0x14, 0xf5, 0xbd, 0xb4, 0xd4, 0x99, 0xbc, 0xfa, 0x04, 0x86, 0x3d,
  0xda, 0x2d, 0xba, 0x3c, 0xfd, 0xe5, 0xc2, 0x3a, 0x63, 0x32, 0x4a, 0xbe,
  0x44, 0x29, 0x43, 0x3d, 0x73, 0x9d, 0x14, 0xbe, 0x6d, 0xc6, 0xed, 0x3a,
  0x6d, 0xac, 0xc0, 0xbc, 0x3d, 0x73, 0xfb, 0xbd, 0xc2, 0xe0, 0x38, 0xbd,
  0x5a, 0xb7, 0x26, 0xbe, 0xbb, 0xc5, 0x6e, 0x3d, 0xdf, 0xee, 0xbc, 0x3b,
  0x25, 0x66, 0xcc, 0x3c, 0x10, 0xd7, 0x17, 0xbe, 0x36, 0xe1, 0x38, 0xbe,
  0x1c, 0xbb, 0x2f, 0xbe, 0x16, 0x6f, 0x2f, 0xbe, 0x8b, 0xe6, 0xba, 0x3c,
  0x46, 0x10, 0x2e, 0xbe, 0x7c, 0xfc, 0x33, 0xbe, 0x78, 0xee, 0xfe, 0xbd,
  0x94, 0x21, 0x08, 0x3d, 0x24, 0x0a, 0xa1, 0xbd, 0x85, 0xfa, 0x60, 0xbd,
  0x3b, 0xba, 0x38, 0xbe, 0x36, 0x3a, 0x2e, 0xbe, 0x2e, 0x20, 0x08, 0xbe,
  0x4c, 0x51, 0x16, 0xbe, 0x9e, 0x94, 0xc4, 0xbc, 0x15, 0x11, 0x8c, 0xbe,
  0x36, 0xde, 0x27, 0xbe, 0x59, 0xf0, 0x0c, 0xbe, 0x21, 0xbe, 0x91, 0xbe,
  0xc0, 0x74, 0xdd, 0xbd, 0xf6, 0x54, 0x88, 0xbe, 0x43, 0xa0, 0xdb, 0x3d,
  0x59, 0x05, 0x9c, 0xbe, 0xce, 0xaa, 0xea, 0x3d, 0x2f, 0x41, 0xfc, 0xbc,
  0x6c, 0x23, 0x23, 0xbe, 0x5e, 0xa7, 0x08, 0x3c, 0x08, 0x03, 0x2e, 0xbd,
  0xe4, 0x72, 0x9b, 0x3a, 0x4d, 0xfc, 0x0f, 0x3d, 0x24, 0x84, 0xb9, 0xbd,
  0x99, 0xa8, 0x97, 0xbe, 0xd1, 0xee, 0xab, 0x3d, 0xc3, 0x43, 0x79, 0xbc,
  0xec, 0xeb, 0x12, 0xbe, 0xe0, 0xb3, 0x61, 0xbe, 0xcc, 0x84, 0x51, 0x3d,
  0x50, 0x44, 0xbe, 0xbd, 0xb2, 0x21, 0x65, 0xbe, 0x1d, 0x4f, 0x41, 0xbd,
  0x97, 0x60, 0x4c, 0xbe, 0x94, 0xdc, 0x46, 0xbd, 0x11, 0xdc, 0xe0, 0xbd,
  0x19, 0x13, 0x8f, 0x3c, 0xfe, 0x8d, 0x17, 0xbe, 0x39, 0xff, 0x02, 0x3e,
  0x76, 0xff, 0xb6, 0xbd, 0xcd, 0x81, 0xa1, 0xbe, 0xcb, 0xa3, 0x40, 0xbe,
  0x36, 0x5d, 0x4d, 0xbe, 0x36, 0xf4, 0xf7, 0x3d, 0xde, 0x7c, 0xba, 0xbb,
  0xf7, 0xa7, 0xa4, 0x3d, 0xc3, 0xbc, 0x65, 0x3d, 0x64, 0x96, 0x02, 0xbd,
  0x84, 0x55, 0x17, 0x3c, 0x4f, 0x38, 0x05, 0x3e, 0xfc, 0xe1, 0xea, 0xbd,
  0xd9, 0xea, 0x28, 0x3c, 0x2d, 0xff, 0x5e, 0xbe, 0x5e, 0xd1, 0x86, 0xbe,
  0x89, 0x99, 0x63, 0xbc, 0x9f, 0x64, 0x96, 0xbd, 0xb6, 0xad, 0x34, 0xbe,
  0x8c, 0xe9, 0xc0, 0xbc, 0xa0, 0xe6, 0xcb, 0x3d, 0x8c, 0x47, 0x99, 0xbe,
  0x5d, 0xe8, 0xd8, 0x3d, 0x66, 0x48, 0xc4, 0x3d, 0xa2, 0x94, 0xce, 0xbd,
  0x98, 0x7a, 0x0e, 0xbe, 0x76, 0x20, 0x47, 0xbe, 0xb4, 0xae, 0x34, 0xbd,
  0xdf, 0x9f, 0xde, 0xbd, 0x87, 0xf2, 0xf8, 0xbd, 0x9a, 0x8b, 0xe5, 0xbd,
  0xb4, 0xde, 0x23, 0x3e, 0x51, 0x81, 0xdf, 0xbc, 0xe6, 0xa6, 0x0c, 0xbe,
  0x55, 0xaa, 0x90, 0xbd, 0x71, 0xd2, 0xa9, 0xbc, 0x99, 0xa8, 0xf1, 0x3d,
  0x12, 0xf7, 0x49, 0xbe, 0x64, 0x2c, 0x6a, 0xbe, 0xcd, 0xf8, 0x28, 0xbe,
  0x6d, 0x94, 0x97, 0xbd, 0x8f, 0x80, 0x95, 0x3b, 0xb3, 0x2f, 0x97, 0xbd,
  0x71, 0x50, 0xed, 0xbd, 0xca, 0x03, 0x90, 0x3d, 0x3b, 0x3e, 0x80, 0xbe,
  0xcc, 0x3b, 0xa2, 0xbc, 0xf0, 0xfa, 0xa9, 0x3d, 0xfa, 0x86, 0xc4, 0xbd,
  0xf0, 0x36, 0x6f, 0xbe, 0x0a, 0x23, 0xc7, 0xbd, 0x34, 0x8a, 0x93, 0xbd,
  0xb3, 0x32, 0xc5, 0x3d, 0xef, 0xdd, 0x8f, 0x3c, 0x41, 0x1c, 0x8b, 0xbd,
  0xb3, 0x53, 0x42, 0xbe, 0x82, 0xb0, 0xe3, 0x3d, 0x19, 0x6f, 0xcf, 0xbc,
  0xb8, 0xf3, 0x49, 0x3d, 0x4c, 0x6a, 0x0b, 0xbe, 0xd1, 0x11, 0x28, 0x3e,
  0x96, 0xa4, 0x56, 0x3e, 0x57, 0x04, 0x22, 0xbe, 0x58, 0x09, 0x04, 0xbe,
  0x0a, 0x90, 0x08, 0x3d, 0x59, 0x08, 0x15, 0xbe, 0x29, 0x88, 0x06, 0xbd,
  0x5d, 0x39, 0x2c, 0x3d, 0xd1, 0xfc, 0x91, 0xbd, 0xf1, 0x59, 0x07, 0xbe,
  0xf4, 0xf1, 0x11, 0xbc, 0x3c, 0x8e, 0x17, 0xbe, 0x13, 0x9d, 0x21, 0x3a,
  0xec, 0x96, 0xb1, 0xbe, 0xba, 0x04, 0x97, 0xbe, 0xa3, 0xe1, 0xee, 0xbd,
  0xfd, 0x11, 0x0a, 0xbe, 0x67, 0xc9, 0x6d, 0xbe, 0xfe, 0x90, 0x33, 0xbe,
  0xac, 0x28, 0xce, 0xbd, 0xd9, 0xe7, 0x4d, 0xbe, 0x71, 0x4d, 0xef, 0x3d,
  0x3c, 0xda, 0xd9, 0xbd, 0xf9, 0xd7, 0x60, 0x3c, 0xcd, 0x28, 0x96, 0x3e,
  0xd0, 0xb6, 0x01, 0xbd, 0xe2, 0xb3, 0x39, 0xbe, 0xa6, 0xcf, 0x8f, 0xbe,
  0x23, 0x82, 0xa0, 0xb9, 0xdf, 0xcf, 0x84, 0xbe, 0x32, 0x73, 0xd2, 0x3d,
  0xbf, 0xff, 0x1c, 0xbd, 0x0d, 0x26, 0x51, 0xbd, 0x2d, 0xa1, 0x19, 0xbd,
  0x33, 0xd5, 0xd8, 0xbc, 0xce, 0x6f, 0x90, 0xbd, 0x27, 0x20, 0x8c, 0x3e,
  0xd8, 0x3e, 0xab, 0x3d, 0xf6, 0x17, 0xdd, 0xbd, 0x04, 0xa9, 0x9e, 0xbd,
  0x7c, 0x36, 0xb3, 0x3d, 0xb3, 0x9b, 0x6f, 0xbd, 0xe5, 0x80, 0x0d, 0xbc,
  0x6c, 0x61, 0x96, 0xbd, 0x8f, 0xe6, 0xf0, 0xbd, 0xdf, 0xe5, 0x10, 0xbd,
  0x38, 0xa3, 0x69, 0x3e, 0x7f, 0x73, 0x9b, 0xbe, 0x7b, 0x01, 0x4c, 0xbe,
  0x83, 0xfc, 0xa2, 0xbe, 0xa7, 0x7f, 0x1b, 0x3d, 0xdf, 0xd5, 0x87, 0xbd,
  0x43, 0x2a, 0x84, 0x3e, 0xec, 0x83, 0xc4, 0x3c, 0xde, 0xd8, 0xf1, 0x3d,
  0xe1, 0x0d, 0x40, 0xbe, 0xb9, 0x07, 0xae, 0x3d, 0x8b, 0xb1, 0x66, 0xbd,
  0x40, 0x18, 0x8c, 0xbe, 0xef, 0x9b, 0x08, 0x3e, 0x79, 0xea, 0x62, 0xbe,
  0x48, 0xf6, 0x33, 0x3e, 0x1e, 0xb0, 0x12, 0x3e, 0x50, 0x04, 0xac, 0x3b,
  0x47, 0xd4, 0x1f, 0x3c, 0x44, 0x88, 0xe8, 0x3b, 0x42, 0x9a, 0x51, 0x3d,
  0x6a, 0xcd, 0x1e, 0xbc, 0xd6, 0xac, 0x70, 0xbd, 0x11, 0xb6, 0x02, 0x3e,
  0x54, 0x52, 0x52, 0x3e, 0x37, 0x61, 0x3e, 0xbe, 0xa6, 0x9a, 0x9a, 0x3e,
  0x81, 0x41, 0x12, 0xbd, 0xdb, 0x6b, 0x17, 0x3d, 0x28, 0xab, 0xb4, 0xbb,
  0x93, 0xbb, 0x8f, 0xbe, 0xa6, 0x4a, 0x66, 0xbe, 0x3f, 0xa6, 0xd9, 0x3d,
  0xfa, 0x59, 0x8c, 0xbd, 0xcb, 0xaa, 0x6d, 0xbe, 0xbf, 0xf0, 0x03, 0xbd,
  0x76, 0x80, 0x1e, 0xbe, 0xff, 0x34, 0x0a, 0xbe, 0x7d, 0xd9, 0xaa, 0xbc,
  0xc1, 0xd3, 0x08, 0xbd, 0x32, 0x58, 0x16, 0x3e, 0xed, 0xdd, 0x31, 0xbe,
  0xb1, 0x7b, 0x68, 0xbc, 0x25, 0x05, 0x4d, 0xbd, 0xcb, 0x33, 0xb8, 0xbd,
  0xf9, 0xe6, 0xb8, 0x3d, 0x84, 0xcf, 0xcf, 0xbc, 0xdc, 0xb7, 0x68, 0xbe,
  0x4d, 0xe7, 0xcf, 0x3d, 0x3e, 0xa5, 0xed, 0xbd, 0x0f, 0x7b, 0x34, 0xbe,
  0x13, 0xc0, 0xb4, 0xbe, 0x40, 0xa5, 0x47, 0x3e, 0xe1, 0xd2, 0x33, 0xbe,
  0xc9, 0x01, 0x11, 0x3e, 0xf9, 0xf2, 0x15, 0x3e, 0xdf, 0x77, 0x3a, 0xbe,
  0x20, 0x1b, 0x6c, 0xbd, 0x7d, 0xbd, 0x30, 0xbc, 0x22, 0x95, 0x04, 0xbe,
  0x90, 0x15, 0xd0, 0xbd, 0x97, 0x60, 0x8f, 0xbb, 0x32, 0x28, 0x32, 0xbe,
  0xba, 0x1c, 0x02, 0xbd, 0x55, 0x8e, 0xf2, 0xbd, 0x27, 0xa1, 0x52, 0xbe,
  0x65, 0x57, 0x38, 0xbe, 0x49, 0xd6, 0x35, 0xbe, 0x20, 0xe4, 0xbc, 0x3d,
  0x09, 0x0b, 0x1e, 0x3e, 0x7d, 0x79, 0x1c, 0x3e, 0x0d, 0xd7, 0x00, 0xbe,
  0x13, 0xdd, 0xdf, 0xbd, 0x7c, 0x1b, 0x23, 0xbe, 0xfb, 0xc9, 0xf3, 0xbd,
  0x91, 0xd8, 0x1b, 0xbe, 0xac, 0xfb, 0xab, 0xbd, 0x42, 0x38, 0x94, 0x3d,
  0xf6, 0xf4, 0xa8, 0xbd, 0x7a, 0x34, 0xa1, 0xbd, 0x53, 0x87, 0x1a, 0x3d,
  0x60, 0x4b, 0xa4, 0x3c, 0x14, 0xba, 0x98, 0xbc, 0xff, 0xb7, 0xb7, 0xbe,
  0xac, 0xee, 0x87, 0x3d, 0xd4, 0x2e, 0x9d, 0x3d, 0xbd, 0xd1, 0x49, 0x3b,
  0x3b, 0x74, 0x6b, 0x3e, 0x02, 0x47, 0xc4, 0xbd, 0xb0, 0xc2, 0x1b, 0xbd,
  0x5f, 0x56, 0x5b, 0xbd, 0x32, 0xad, 0x08, 0x3d, 0xac, 0x26, 0x81, 0x3e,
  0xbc, 0xa6, 0xb4, 0xbc, 0x32, 0x41, 0x9c, 0x3d, 0xbe, 0x61, 0x7b, 0x3e,
  0x8b, 0xa2, 0x38, 0xbe, 0x5c, 0xdc, 0xfd, 0xbc, 0xbe, 0x7d, 0x60, 0x3a,
  0xc0, 0x54, 0xa7, 0xbe, 0x01, 0x5f, 0x7a, 0x3e, 0x4c, 0xc0, 0xe8, 0x39,
  0x0f, 0x09, 0xa7, 0xbe, 0x06, 0x2e, 0x4e, 0x3e, 0x9e, 0x48, 0x38, 0xbe,
  0xb6, 0x92, 0x10, 0xbd, 0x71, 0x35, 0x20, 0xbe, 0x86, 0x0e, 0x2b, 0xbe,
  0xfa, 0x9d, 0x55, 0x3e, 0x43, 0xdc, 0x0f, 0xbe, 0x32, 0x6b, 0x9d, 0xbe,
  0xcd, 0xa2, 0x3c, 0xbd, 0xeb, 0xd6, 0xd4, 0xbe, 0x16, 0xe6, 0xff, 0xbc,
  0xb6, 0x7b, 0xb9, 0xbc, 0xda, 0x7c, 0x2e, 0xbe, 0xec, 0x62, 0x8d, 0x3e,
  0x3c, 0x9b, 0x9b, 0xbd, 0x64, 0xe5, 0x11, 0xbe, 0xaf, 0x61, 0x71, 0xbe,
  0x9d, 0x15, 0x3b, 0xbf, 0x97, 0xf6, 0x2f, 0xbc, 0xa1, 0x24, 0xf5, 0xbe,
  0x0c, 0x52, 0x63, 0xbd, 0x07, 0xf5, 0x36, 0xbe, 0xa0, 0xc2, 0xe9, 0xbd,
  0xe3, 0xb2, 0xe1, 0xbe, 0xdb, 0x73, 0x65, 0xbd, 0x97, 0x16, 0x20, 0xbe,
  0x9c, 0xc9, 0xfc, 0x3c, 0xea, 0x53, 0x79, 0xbd, 0xd6, 0x28, 0x85, 0xbe,
  0x48, 0x75, 0x7e, 0x3d, 0x7f, 0x18, 0x7a, 0xbe, 0x10, 0xf7, 0xb5, 0xbc,
  0xee, 0x3e, 0x13, 0x3c, 0xc8, 0xb3, 0xc2, 0xbe, 0xd5, 0xda, 0x1b, 0xbc,
  0x40, 0x73, 0x14, 0xbf, 0x6a, 0xfc, 0xfb, 0xbd, 0xfb, 0xa3, 0x5b, 0x3d,
  0xf4, 0x5a, 0xdf, 0xbd, 0x93, 0x32, 0x15, 0xbf, 0x27, 0xf4, 0x20, 0xbd,
  0x4d, 0x63, 0x9b, 0x3d, 0x5d, 0x49, 0x38, 0x3e, 0xb6, 0x8d, 0x46, 0xbd,
  0xe0, 0x9d, 0xe3, 0xbd, 0xff, 0x5a, 0x79, 0x3e, 0x4f, 0xb9, 0xb0, 0x3e,
  0xc8, 0xb3, 0xa9, 0x3d, 0x01, 0x7f, 0xaf, 0x3c, 0x35, 0x59, 0x34, 0xbe,
  0x8a, 0xab, 0x07, 0x3c, 0x21, 0x81, 0x2f, 0xbe, 0xf3, 0x6e, 0xdd, 0xbd,
  0x36, 0x6f, 0x01, 0x3e, 0x26, 0x26, 0x9c, 0x3d, 0x77, 0x9e, 0x88, 0xbe,
  0xe4, 0xdf, 0xa6, 0x3d, 0xd6, 0x73, 0xd6, 0x3b, 0xca, 0x1e, 0x21, 0x3e,
  0xfc, 0xd9, 0x84, 0xbd, 0x04, 0xb6, 0x5a, 0xbe, 0x47, 0x66, 0xdb, 0x3d,
  0x83, 0xf7, 0xdd, 0x3e, 0xb6, 0xc6, 0x3c, 0x3e, 0xf8, 0xc1, 0xfb, 0x3d,
  0x6e, 0x3f, 0xc6, 0xbd, 0x5b, 0x6b, 0x20, 0xbc, 0x44, 0x01, 0xa5, 0xbe,
  0xb5, 0xe6, 0x33, 0xbd, 0x9a, 0x38, 0x21, 0x3d, 0x8e, 0x79, 0x35, 0x3e,
  0x8b, 0xfb, 0x03, 0xbe, 0xef, 0xf9, 0x0c, 0x3e, 0x27, 0xec, 0x9b, 0x3c,
  0x3c, 0xc9, 0x4c, 0x3d, 0x7b, 0xa0, 0xe9, 0x3c, 0x8f, 0xef, 0x3a, 0xbd,
  0x87, 0x6e, 0x9c, 0x3d, 0x6a, 0x4c, 0x29, 0x3d, 0x8c, 0x2c, 0x25, 0x3d,
  0x59, 0xe2, 0x65, 0x3b, 0xf5, 0x9c, 0x40, 0xbd, 0x76, 0x26, 0xe0, 0xbb,
  0xbe, 0xba, 0x5c, 0x3c, 0x0a, 0x87, 0xe4, 0x3c, 0xeb, 0xc3, 0xf0, 0x3d,
  0x20, 0x4c, 0x69, 0x3d, 0xad, 0xa4, 0xfd, 0x3c, 0xa2, 0x53, 0xcf, 0xbb,
  0xe5, 0xa5, 0xe0, 0x3c, 0x35, 0x92, 0x94, 0xbe, 0x64, 0xc3, 0x5b, 0x3d,
  0x69, 0x94, 0xf1, 0xbe, 0xeb, 0x90, 0x82, 0xbd, 0xbc, 0x67, 0x1c, 0x3b,
  0xf3, 0x8a, 0xcf, 0x3c, 0x0e, 0x7e, 0xc7, 0xbd, 0xe8, 0xcf, 0xc0, 0x3d,
  0x22, 0x9f, 0xb2, 0x3c, 0x65, 0x04, 0x0d, 0x3e, 0xf2, 0x0e, 0x8a, 0xbe,
  0xf3, 0x9f, 0x54, 0x3d, 0x12, 0x20, 0xc3, 0xbe, 0x2d, 0x21, 0x99, 0xbd,
  0xb2, 0x05, 0x1d, 0xbe, 0x7c, 0xe2, 0x2b, 0xbd, 0x85, 0xad, 0xfe, 0xbd,
  0x06, 0xae, 0x48, 0x3d, 0xb0, 0x9d, 0x0a, 0xbf, 0xb2, 0x38, 0x27, 0xbe,
  0x0e, 0x15, 0x31, 0x3e, 0x42, 0x82, 0x94, 0x3d, 0xc7, 0xcb, 0xa3, 0x3c,
  0xfd, 0x7b, 0x70, 0x3e, 0x36, 0x56, 0x7a, 0xbe, 0x24, 0x8d, 0x6c, 0x3e,
  0x36, 0xdb, 0xd2, 0x3d, 0xf6, 0xe7, 0x60, 0x3d, 0xb7, 0x04, 0x6f, 0xbe,
  0xcd, 0x1c, 0x75, 0x3e, 0x99, 0x9f, 0x22, 0x3e, 0xa8, 0x9a, 0x53, 0xbd,
  0xed, 0xb8, 0xbb, 0xbe, 0x34, 0xe7, 0xca, 0x3c, 0x7d, 0xc7, 0x92, 0xbf,
  0xa5, 0xcb, 0x89, 0xbd, 0xe0, 0xe6, 0x92, 0x3e, 0x00, 0x71, 0xcc, 0x3d,
  0xcc, 0x3a, 0x27, 0x3e, 0x38, 0x71, 0xba, 0x3e, 0xda, 0xa1, 0x96, 0xbe,
  0xc1, 0x0e, 0x9c, 0x3e, 0x74, 0x3b, 0xd4, 0xbd, 0x6c, 0xf0, 0x17, 0x3e,
  0xde, 0x08, 0xe4, 0xbd, 0xd6, 0xfb, 0x23, 0x3e, 0x79, 0xda, 0x5e, 0xbd,
  0xe9, 0x32, 0x00, 0xbd, 0x80, 0xe0, 0x73, 0xbe, 0x53, 0x2f, 0x2a, 0xbc,
  0xe3, 0x00, 0x46, 0xbf, 0x15, 0x24, 0xfb, 0x3d, 0x4b, 0x6e, 0x9f, 0x3d,
  0x3f, 0x77, 0x3b, 0x3e, 0x18, 0xa4, 0x71, 0x3e, 0x23, 0x79, 0x68, 0x3e,
  0xe8, 0xca, 0x97, 0xbe, 0x62, 0xb9, 0x53, 0x3e, 0x92, 0xd3, 0x4f, 0xbe,
  0xed, 0x60, 0x86, 0x3d, 0x7f, 0x1d, 0xa9, 0xbe, 0x92, 0x20, 0x7b, 0xbf,
  0xa4, 0xfe, 0xa2, 0xbd, 0x2f, 0x95, 0x3d, 0xbd, 0xcb, 0x5e, 0xbd, 0xbe,
  0xa1, 0x3f, 0x86, 0xbc, 0xcc, 0x05, 0x0c, 0xbf, 0x83, 0xa8, 0x88, 0x3d,
  0xc4, 0x4b, 0xb3, 0x3d, 0xb5, 0x9b, 0x84, 0x3e, 0x6c, 0x36, 0x33, 0xbd,
  0x50, 0x2c, 0x8b, 0x3e, 0xc9, 0x55, 0x9c, 0xbe, 0x9e, 0x47, 0x60, 0x3e,
  0x57, 0xc5, 0xf6, 0xbd, 0x95, 0x21, 0x35, 0x3e, 0x10, 0x9b, 0x94, 0xbe,
  0xac, 0xa4, 0x38, 0xbf, 0x2f, 0x36, 0x40, 0xbd, 0xdb, 0x79, 0xcd, 0x3c,
  0xb4, 0x44, 0x01, 0xbf, 0xdf, 0x7a, 0xc6, 0x3c, 0x30, 0x30, 0x49, 0xbf,
  0xd9, 0x63, 0x14, 0x3e, 0xf8, 0x8e, 0x71, 0xbe, 0xf4, 0x2f, 0xb2, 0x3e,
  0x8b, 0xfa, 0x7d, 0xbd, 0x8d, 0xf6, 0xcc, 0x3e, 0x92, 0x66, 0x84, 0xbe,
  0xc7, 0xe4, 0xd9, 0x3e, 0xda, 0x7f, 0x88, 0xbe, 0x2b, 0xf8, 0x5a, 0xbc,
  0xb6, 0xa0, 0x2a, 0xbf, 0xa8, 0xb2, 0x40, 0xbf, 0x62, 0x03, 0x97, 0xbd,
  0x1f, 0x12, 0xbe, 0x3d, 0x4d, 0x48, 0x2c, 0xbc, 0xb7, 0xd6, 0x7d, 0xbd,
  0xe2, 0xcb, 0x36, 0xbe, 0xdc, 0x97, 0xa4, 0x3d, 0xc6, 0x7b, 0xc4, 0xbd,
  0x68, 0xaf, 0x7a, 0x3e, 0x57, 0x2d, 0x05, 0xbe, 0x38, 0xc8, 0xd9, 0x3d,
  0x3e, 0x3d, 0x3f, 0xbe, 0x8f, 0xea, 0x0e, 0x3d, 0x68, 0x10, 0x2f, 0xbc,
  0x19, 0x26, 0x81, 0x3d, 0x61, 0x74, 0x06, 0xbe, 0x4b, 0x5d, 0xb2, 0xbd,
  0xa5, 0x9d, 0x93, 0xbe, 0x1a, 0xd5, 0xb9, 0x3c, 0x85, 0x0e, 0xe7, 0x3d,
  0x34, 0x89, 0xe4, 0xbe, 0xd2, 0x61, 0x27, 0x3e, 0xb5, 0x80, 0x12, 0xbe,
  0x2b, 0xc4, 0x10, 0x3d, 0xf3, 0xec, 0x63, 0xbe, 0x1a, 0xfb, 0x22, 0xbd,
  0x4f, 0x69, 0xfa, 0x3d, 0x90, 0x55, 0x1a, 0xbd, 0xc4, 0x36, 0x79, 0xbe,
  0x85, 0x44, 0x8e, 0xbd, 0x5c, 0x71, 0x8d, 0xbe, 0xab, 0x21, 0x24, 0xbe,
  0x83, 0xd2, 0x74, 0xbe, 0x7e, 0xdf, 0x7a, 0xbe, 0x26, 0x46, 0x56, 0xbc,
  0xb2, 0xd6, 0x5a, 0x3d, 0x7e, 0x7f, 0xc0, 0xbe, 0xa8, 0xd5, 0x2d, 0xbe,
  0x2c, 0x6e, 0xae, 0xbd, 0x2f, 0xd9, 0xd2, 0xbd, 0x33, 0xb6, 0x0a, 0x3c,
  0x6d, 0x63, 0x24, 0xbd, 0xa8, 0xb5, 0x86, 0xbe, 0x0d, 0xc2, 0xa7, 0xbd,
  0xb0, 0xaa, 0xed, 0xbd, 0x06, 0xbd, 0x14, 0x3d, 0x51, 0xb9, 0x73, 0xbe,
  0x83, 0x99, 0xfc, 0xbd, 0x0f, 0x6b, 0x7c, 0xbe, 0x95, 0x3f, 0xb3, 0xbe,
  0xf5, 0xeb, 0xdd, 0xbd, 0xff, 0x1b, 0x3c, 0xbd, 0xbd, 0x89, 0x09, 0xbf,
  0x43, 0xce, 0xce, 0xbd, 0x7b, 0xc0, 0x78, 0xbd, 0x46, 0x3c, 0x49, 0x3c,
  0x5c, 0x99, 0xee, 0xbd, 0x30, 0x97, 0x9b, 0xbe, 0xa5, 0xf4, 0x45, 0x3d,
  0x0b, 0x4c, 0x53, 0xbd, 0x03, 0x68, 0xa9, 0xbd, 0xbe, 0xaa, 0x32, 0xbd,
  0xb3, 0x18, 0x70, 0xbe, 0xb4, 0x41, 0x21, 0xbe, 0x1a, 0xe6, 0xb5, 0xbc,
  0x32, 0xde, 0xa2, 0xbe, 0xab, 0x5f, 0x46, 0xbe, 0xf5, 0x99, 0x64, 0xbe,
  0x1f, 0x81, 0xf4, 0xbe, 0xd6, 0x18, 0x62, 0xbe, 0xf0, 0x47, 0x4d, 0xbe,
  0x38, 0x56, 0xd2, 0xbd, 0x58, 0xe0, 0x81, 0x3c, 0x40, 0xb2, 0xab, 0xbe,
  0xa9, 0x92, 0x86, 0xbd, 0x0d, 0x14, 0x7d, 0xbd, 0xbb, 0x77, 0x38, 0xbe,
  0xfb, 0xe6, 0x53, 0xbd, 0x95, 0x76, 0xc2, 0xbe, 0x29, 0x99, 0x0d, 0xbe,
  0x08, 0x67, 0xa8, 0xbe, 0x76, 0x93, 0x82, 0xbe, 0x70, 0x7c, 0xa1, 0x3d,
  0x64, 0x5e, 0xa2, 0x3d, 0xa5, 0x19, 0x7d, 0xbe, 0x8b, 0x2c, 0x18, 0xbe,
  0xb4, 0x8f, 0xaf, 0x3d, 0x75, 0x5d, 0x4e, 0xbd, 0xd5, 0x76, 0x97, 0x3e,
  0x97, 0xe0, 0x1c, 0x3e, 0x59, 0xd2, 0x1f, 0xbe, 0x81, 0xbb, 0x90, 0x3d,
  0x45, 0xa9, 0x07, 0x3e, 0x96, 0x46, 0x5a, 0x3d, 0x87, 0xb9, 0x4a, 0xbe,
  0x4d, 0xba, 0x0c, 0x3d, 0x55, 0x09, 0xce, 0xbd, 0x78, 0xad, 0xfe, 0xbd,
  0x63, 0x85, 0x60, 0x3e, 0x04, 0x32, 0x54, 0x3e, 0xdc, 0x7e, 0x06, 0xbe,
  0x14, 0xab, 0xb0, 0x3d, 0x67, 0x20, 0x8b, 0xbc, 0xa7, 0xf7, 0xcd, 0x3e,
  0xff, 0x89, 0x8d, 0x3e, 0x09, 0xdc, 0xd3, 0x3c, 0x14, 0xa8, 0x35, 0xbe,
  0x2f, 0x5e, 0x66, 0x3c, 0x94, 0x41, 0x54, 0x3e, 0x8c, 0xc9, 0x0d, 0x3e,
  0x66, 0xed, 0xbc, 0xbd, 0x95, 0x44, 0x8d, 0xbd, 0x0a, 0x86, 0x1b, 0x3e,
  0xf7, 0xdc, 0x2e, 0x3e, 0xb7, 0x65, 0xe6, 0xbd, 0x4f, 0xa1, 0x46, 0xbe,
  0x42, 0x33, 0x39, 0x3d, 0x79, 0xb5, 0x5c, 0xbd, 0xdb, 0x28, 0x48, 0x3e,
  0x4a, 0xc0, 0x4a, 0x3e, 0x94, 0x27, 0x69, 0x3c, 0xa8, 0xbf, 0x81, 0xbd,
  0xa4, 0xc8, 0x2d, 0xbf, 0x5c, 0x77, 0x73, 0xbd, 0xfa, 0xb9, 0x38, 0xbe,
  0xbf, 0x87, 0x11, 0xbe, 0x25, 0x6e, 0x57, 0xbd, 0x09, 0x5f, 0x9a, 0x3d,
  0x9a, 0xbd, 0x40, 0xbe, 0xd1, 0x98, 0x29, 0x3d, 0xd9, 0xc3, 0x7c, 0xbe,
  0x57, 0xc8, 0x9d, 0xbd, 0xfb, 0xbb, 0xc7, 0xbe, 0x1f, 0x08, 0x7b, 0x3f,
  0xea, 0xd5, 0xac, 0x3d, 0xfe, 0x8c, 0x1d, 0x3e, 0xfb, 0x67, 0x86, 0xbc,
  0x5d, 0xbb, 0x35, 0xbe, 0x87, 0x07, 0x2a, 0xbd, 0x3c, 0x9f, 0x9e, 0xbe,
  0xe5, 0x57, 0x05, 0x3d, 0x28, 0x52, 0xb2, 0x3d, 0x1c, 0xe8, 0x72, 0xbd,
  0x6c, 0x28, 0x22, 0x3e, 0xc1, 0xca, 0x49, 0x3d, 0x72, 0xf3, 0x32, 0xbc,
  0x5b, 0xa2, 0x0b, 0xbe, 0x0a, 0x27, 0x07, 0x3c, 0x3e, 0x74, 0x2b, 0xbe,
  0x15, 0xc4, 0x2c, 0x3f, 0xa2, 0xcc, 0x8c, 0xbd, 0xb6, 0x48, 0x6f, 0x3e,
  0x05, 0x8d, 0xa7, 0xbc, 0x3a, 0x57, 0xdd, 0xbd, 0x8f, 0xf5, 0xee, 0x3d,
  0x2b, 0x62, 0xdf, 0x3c, 0xd4, 0x39, 0x53, 0x3d, 0x2e, 0x1f, 0x93, 0x3d,
  0xc5, 0x81, 0x73, 0xbe, 0x24, 0x2b, 0xd1, 0xbc, 0x11, 0x43, 0xec, 0x3e,
  0xe1, 0x5c, 0x42, 0x3e, 0x04, 0x8f, 0x9a, 0xbe, 0xa7, 0x6e, 0x34, 0x3e,
  0x09, 0xd7, 0x4e, 0xbe, 0x96, 0x70, 0x4a, 0x3f, 0xd7, 0x5c, 0x3c, 0xbd,
  0xd8, 0x2c, 0xa2, 0x3e, 0xc9, 0xf4, 0xb2, 0x3d, 0x30, 0x06, 0xb9, 0x3d,
  0x0c, 0x30, 0x9f, 0xbc, 0x23, 0x7c, 0xa8, 0xbd, 0x8a, 0xd1, 0x2c, 0x3e,
  0x73, 0x1a, 0xfa, 0x3e, 0x71, 0xeb, 0x53, 0x3e, 0x8e, 0x70, 0x41, 0x3e,
  0x38, 0x30, 0x34, 0x3f, 0x85, 0xff, 0x83, 0x3e, 0x34, 0x82, 0x53, 0xbe,
  0xd9, 0x02, 0xc5, 0x3e, 0x9b, 0x55, 0xc4, 0xbe, 0xf3, 0xef, 0x45, 0x3f,
  0x6f, 0xee, 0xcb, 0x3e, 0x36, 0xcb, 0xaf, 0x3e, 0x08, 0x9a, 0xa6, 0xbb,
  0xee, 0x2c, 0xfb, 0xbd, 0x41, 0x97, 0xe5, 0xba, 0x0a, 0x8c, 0x41, 0x3e,
  0xd6, 0xf5, 0x90, 0x3e, 0x4e, 0x7b, 0xac, 0x3e, 0x47, 0xdb, 0xd8, 0x3d,
  0x97, 0x59, 0x52, 0x3d, 0xc5, 0xe7, 0x3f, 0x3f, 0xa4, 0xcd, 0x70, 0x3e,
  0x10, 0xfd, 0x2a, 0xbe, 0xf7, 0xe4, 0xd7, 0x3c, 0x34, 0x47, 0xa9, 0xbe,
  0x03, 0x1f, 0x8b, 0x3f, 0x52, 0xdb, 0x11, 0xbe, 0x3d, 0x7d, 0xe7, 0x3d,
  0x84, 0xaf, 0x5b, 0xbe, 0xe4, 0x00, 0x3b, 0x3e, 0x66, 0x5d, 0x0c, 0x3e,
  0x3d, 0x1f, 0xe1, 0xbd, 0x5a, 0x2f, 0x2f, 0xbe, 0x3e, 0x34, 0x4b, 0x3e,
  0x74, 0x75, 0x0b, 0x3e, 0x2c, 0xe4, 0x81, 0xbe, 0x47, 0x1e, 0xaf, 0x3e,
  0x8a, 0xb7, 0x76, 0x3d, 0xce, 0xd1, 0x9b, 0xbe, 0xe2, 0x73, 0xb4, 0x3d,
  0xa1, 0xa4, 0x00, 0xbf, 0x68, 0x1e, 0xa8, 0x3e, 0x64, 0xc1, 0x4b, 0xbe,
  0x10, 0x9c, 0xb5, 0xbd, 0x21, 0x2f, 0xbd, 0xbd, 0xa9, 0x5b, 0x06, 0xbe,
  0x37, 0xfe, 0xd0, 0x3c, 0x0e, 0xd5, 0x27, 0xbd, 0x71, 0x5c, 0x91, 0x3e,
  0xb6, 0x69, 0x32, 0x3e, 0x8d, 0x57, 0x53, 0xbd, 0x18, 0x1c, 0x0e, 0xbe,
  0xcc, 0xb9, 0xc3, 0x3e, 0xd1, 0xa2, 0xe1, 0x3c, 0xdd, 0x8d, 0xa7, 0xbe,
  0x69, 0xea, 0x99, 0x3d, 0x73, 0x1e, 0xf5, 0xbe, 0xc6, 0xfb, 0x9f, 0x3e,
  0x8f, 0x60, 0xa8, 0xbe, 0x16, 0x21, 0xe4, 0x3c, 0x7b, 0x11, 0x81, 0xbd,
  0x56, 0x02, 0x9f, 0xbe, 0xca, 0x14, 0xd5, 0x3d, 0xec, 0x1d, 0x2b, 0xbe,
  0x40, 0x11, 0xae, 0xbe, 0x9d, 0x91, 0x2c, 0xbe, 0xf1, 0xd7, 0x47, 0xbe,
  0xa3, 0x28, 0x8b, 0xbe, 0xe6, 0xb0, 0x46, 0x3e, 0xca, 0x74, 0x39, 0x3d,
  0x44, 0x0b, 0xf8, 0x3d, 0x01, 0x53, 0x7a, 0xbe, 0x76, 0xc5, 0x87, 0x3d,
  0xd0, 0x3f, 0x83, 0x3f, 0x36, 0xfb, 0xec, 0x3b, 0x3c, 0xe3, 0x96, 0xbe,
  0xd0, 0x8e, 0x33, 0x3e, 0x96, 0x4e, 0x8c, 0xbe, 0x2e, 0x1b, 0x05, 0x3f,
  0x67, 0xb8, 0x12, 0x3d, 0xb1, 0xdb, 0x69, 0x3e, 0x3f, 0x0c, 0xd0, 0xbd,
  0xb4, 0xff, 0x47, 0x3e, 0x87, 0x1b, 0x59, 0xbe, 0xcd, 0x2d, 0x2d, 0xbc,
  0x42, 0xd5, 0x09, 0xbe, 0x1d, 0xb8, 0xa3, 0x3c, 0xfa, 0x65, 0x6d, 0x3e,
  0xdc, 0x7b, 0x80, 0x3d, 0x4c, 0x38, 0x30, 0x3f, 0xfe, 0x8b, 0xf7, 0xbd,
  0xb6, 0x08, 0x21, 0x3e, 0x5b, 0xf9, 0x87, 0x3e, 0x02, 0x1c, 0x53, 0xbe,
  0xd7, 0xf2, 0x46, 0x3f, 0xb7, 0xbe, 0x13, 0xbe, 0x61, 0x63, 0xf7, 0x3e,
  0x88, 0x4a, 0x23, 0xbe, 0xe7, 0x4a, 0xcb, 0x3d, 0x16, 0x5f, 0x3d, 0xbe,
  0xdb, 0xe5, 0xec, 0xbd, 0x27, 0xf7, 0xbc, 0x3d, 0x57, 0xad, 0x6f, 0xbc,
  0xbd, 0x4c, 0x8f, 0xbc, 0x0c, 0x7c, 0xca, 0x3c, 0x43, 0x5d, 0xb9, 0x3f,
  0xee, 0xe1, 0x93, 0x3d, 0xef, 0xd5, 0xc5, 0xbd, 0xb9, 0x8e, 0x39, 0x3d,
  0x6c, 0x1c, 0x05, 0x3e, 0xb6, 0x72, 0x38, 0x3f, 0xd3, 0xf2, 0xfa, 0xbd,
  0xb0, 0x96, 0xd5, 0x3e, 0x23, 0xcb, 0x7b, 0xbe, 0x49, 0xe6, 0x59, 0x3a,
  0x59, 0x99, 0x0f, 0xbe, 0x07, 0x6f, 0x21, 0xbd, 0xfa, 0xed, 0x12, 0x3e,
  0xce, 0xb6, 0xbd, 0x3d, 0x7c, 0xac, 0x97, 0x3c, 0x54, 0x03, 0xbc, 0x3c,
  0x05, 0x8b, 0x9a, 0x3f, 0xd0, 0x37, 0x4f, 0x3d, 0x4b, 0x4a, 0x9c, 0xbd,
  0xd9, 0x04, 0x42, 0x3e, 0xe5, 0x56, 0x29, 0xbc, 0x88, 0xf0, 0xf6, 0x3e,
  0xb9, 0x2a, 0xae, 0xbe, 0x53, 0x57, 0x7d, 0x3e, 0x87, 0xab, 0x7c, 0xbe,
  0x22, 0x96, 0x8c, 0x3d, 0x6b, 0x1f, 0xba, 0xbe, 0x3f, 0x0f, 0x2b, 0x3e,
  0x3c, 0xb1, 0xf7, 0xbd, 0x81, 0x68, 0x56, 0xbc, 0x7a, 0xe8, 0xc8, 0xbd,
  0xc2, 0x5e, 0x5b, 0xbd, 0x42, 0x3d, 0x67, 0x3f, 0x47, 0x1b, 0xd0, 0x3d,
  0xcd, 0xe0, 0x9a, 0xbe, 0x9b, 0x23, 0xbb, 0x3e, 0x29, 0x7d, 0x46, 0xbe,
  0x4d, 0x22, 0x25, 0x3f, 0x89, 0x22, 0x82, 0xbe, 0x87, 0xe8, 0xd0, 0x3e,
  0xb1, 0x18, 0x5c, 0xbe, 0xf6, 0x53, 0x8d, 0x3e, 0xcd, 0x35, 0x98, 0xbe,
  0x6c, 0xad, 0x6b, 0xbe, 0x1c, 0x4a, 0x37, 0x3d, 0x37, 0xad, 0xef, 0xbd,
  0x5b, 0xf6, 0x87, 0x3d, 0xdb, 0xab, 0x02, 0xbe, 0xf1, 0xcb, 0x3d, 0x3f,
  0x36, 0x79, 0xa6, 0x3d, 0x58, 0x0a, 0xcb, 0xbe, 0xe6, 0x1b, 0x5b, 0x3e,
  0x70, 0x93, 0x89, 0x3e, 0xaf, 0x31, 0x2c, 0x3f, 0xf6, 0xc7, 0x3b, 0xbe,
  0x95, 0x53, 0xcf, 0x3e, 0x31, 0x18, 0xc9, 0xbe, 0x1e, 0x36, 0x2e, 0x3e,
  0x5f, 0xf2, 0x9f, 0x3e, 0x58, 0x38, 0x88, 0xbe, 0x52, 0x81, 0xc8, 0xbd,
  0xb6, 0x15, 0x3d, 0xbe, 0xe2, 0x44, 0xf6, 0xbd, 0xf1, 0xeb, 0xeb, 0xbd,
  0xd6, 0x6a, 0xb4, 0xbe, 0x7e, 0x9d, 0xe0, 0x3d, 0xc7, 0xa8, 0x93, 0xbd,
  0x77, 0xd7, 0x3c, 0x3e, 0x74, 0x5c, 0xd5, 0xbd, 0x52, 0xf0, 0x6a, 0xbe,
  0x6a, 0xda, 0x3f, 0xbe, 0x7b, 0x47, 0xdb, 0xbd, 0x60, 0x6a, 0x0a, 0xbc,
  0x30, 0x0c, 0xf5, 0x3d, 0xea, 0x0d, 0xa2, 0xbe, 0x41, 0x19, 0xb5, 0x3c,
  0x62, 0x0c, 0x34, 0xbe, 0xcd, 0x00, 0xe9, 0xbc, 0xc5, 0x8d, 0x91, 0xbe,
  0x45, 0x7d, 0x0f, 0x3e, 0x27, 0xb4, 0x3e, 0x3f, 0x1a, 0x81, 0x28, 0x3d,
  0xb6, 0x2f, 0x94, 0xbe, 0x15, 0x97, 0xc2, 0xbd, 0x50, 0x1a, 0xa0, 0x3e,
  0x7c, 0x54, 0x10, 0x3f, 0x2e, 0xba, 0x24, 0xbe, 0x53, 0x9d, 0x25, 0x3e,
  0x42, 0x55, 0x1c, 0xbe, 0xfb, 0x74, 0xb1, 0x3d, 0xac, 0x0f, 0x4f, 0xbc,
  0x8d, 0x13, 0xc8, 0xbd, 0xab, 0x9f, 0x20, 0xbe, 0x9f, 0x64, 0x8e, 0x3d,
  0x7a, 0x46, 0xf8, 0x3d, 0x78, 0x58, 0xc1, 0xbb, 0xe8, 0x47, 0xc7, 0x3e,
  0xfd, 0xbd, 0xd3, 0x3d, 0xb9, 0x9d, 0xc6, 0xbd, 0xeb, 0xa4, 0x96, 0x3e,
  0x11, 0x7e, 0xb7, 0x3d, 0xc1, 0xc0, 0x00, 0x3f, 0x32, 0xee, 0x68, 0xbe,
  0xb9, 0x00, 0x86, 0x3e, 0x21, 0x70, 0x01, 0xbe, 0x52, 0x8e, 0xdd, 0x3d,
  0xd4, 0xba, 0x54, 0xbd, 0x0e, 0xff, 0x5b, 0xbe, 0x00, 0xa9, 0x7c, 0x3e,
  0x77, 0x9d, 0x02, 0xbc, 0xb2, 0x34, 0x5d, 0x3e, 0x75, 0xc9, 0x2b, 0xbe,
  0x27, 0xcb, 0x97, 0x3e, 0x0e, 0x1e, 0x1e, 0x3e, 0xb1, 0x7b, 0x90, 0x3d,
  0x01, 0xf8, 0x84, 0x3e, 0xd7, 0xd0, 0xdf, 0xbd, 0x47, 0x70, 0x16, 0x3f,
  0x25, 0x7e, 0x20, 0xbd, 0xc2, 0x50, 0xb4, 0x3e, 0x68, 0x57, 0x72, 0xbe,
  0x9e, 0x7f, 0x8c, 0xbd, 0xaf, 0xbf, 0x10, 0x3d, 0xec, 0xa0, 0x8a, 0xbd,
  0xce, 0x62, 0xac, 0x3d, 0x71, 0xaf, 0x00, 0xbe, 0x81, 0xfa, 0xdf, 0x3d,
  0xb5, 0x0e, 0xf8, 0xbd, 0xb1, 0x1d, 0x76, 0x3f, 0x62, 0xa1, 0xb4, 0x3d,
  0x59, 0xce, 0x4b, 0xbd, 0x6f, 0x4e, 0x3c, 0x3e, 0x0a, 0x23, 0x29, 0xbd,
  0x74, 0xea, 0x8e, 0x3e, 0xa1, 0x47, 0xf6, 0xbc, 0x21, 0xb2, 0xd8, 0x3e,
  0xdb, 0x0c, 0x7e, 0xbe, 0x48, 0x20, 0x8c, 0x3c, 0xb8, 0x04, 0x07, 0x3e,
  0x92, 0x9e, 0x0a, 0xbe, 0x90, 0x18, 0xad, 0x3d, 0xd3, 0xd2, 0x4a, 0xbe,
  0xca, 0xf8, 0x41, 0x3d, 0x1f, 0xd4, 0x59, 0xbd, 0x9c, 0x8e, 0x32, 0x3f,
  0x0e, 0xe1, 0x64, 0x3e, 0xc2, 0x20, 0x22, 0xbe, 0x34, 0x69, 0x35, 0x3e,
  0x4b, 0xa3, 0xca, 0x3d, 0x5c, 0x5c, 0x17, 0x3f, 0x73, 0x86, 0xe3, 0xbd,
  0x42, 0xb2, 0x7d, 0x3e, 0xcf, 0x35, 0xa0, 0xbe, 0xc7, 0x7b, 0x57, 0x3e,
  0xd0, 0xab, 0x65, 0x3d, 0xea, 0xa2, 0xa0, 0xbe, 0x9f, 0x40, 0xc7, 0x3c,
  0x04, 0x0e, 0x8f, 0x3c, 0xdd, 0xfc, 0x17, 0x3e, 0x49, 0xa7, 0xa8, 0xbd,
  0x41, 0xad, 0xe4, 0x3e, 0x24, 0xee, 0x71, 0x3e, 0x93, 0x0e, 0x8a, 0xbe,
  0x7e, 0x5a, 0x93, 0x3e, 0xb0, 0xcf, 0x3a, 0xbe, 0x8d, 0xbd, 0xba, 0x3e,
  0x25, 0x4c, 0x5a, 0xbd, 0x23, 0x69, 0xa2, 0x3e, 0xe7, 0x1b, 0x08, 0xbe,
  0x04, 0xc1, 0xb0, 0x3d, 0x9d, 0xe4, 0x41, 0xbe, 0xc4, 0x8a, 0x86, 0xbe,
  0x60, 0x18, 0x67, 0xbe, 0x37, 0x48, 0x26, 0xbd, 0x4c, 0x0f, 0xc5, 0x3d,
  0xdb, 0x07, 0xfc, 0xbd, 0x0b, 0x81, 0x1d, 0xbd, 0xb7, 0x77, 0x6c, 0xbd,
  0x74, 0x47, 0x32, 0xbe, 0xf7, 0x3e, 0xed, 0x3d, 0xca, 0xaa, 0xbb, 0xbd,
  0x3d, 0x27, 0x44, 0xbe, 0x3a, 0xaf, 0x3d, 0xbd, 0xcf, 0x3f, 0xde, 0xbd,
  0x37, 0xcb, 0xe9, 0xbc, 0xca, 0xec, 0xbb, 0xbd, 0x4e, 0x5d, 0x90, 0x3c,
  0x7b, 0xd1, 0x18, 0xbe, 0x5c, 0xbe, 0x00, 0xbe, 0x58, 0x44, 0x02, 0xbe,
  0x5f, 0xf9, 0xa6, 0xbd, 0xa4, 0x9f, 0xca, 0xbd, 0xf8, 0xed, 0x26, 0xbe,
  0xb2, 0x1d, 0x01, 0xbd, 0x48, 0x44, 0x82, 0x3c, 0x50, 0x5b, 0x61, 0x3e,
  0x36, 0x66, 0xfa, 0x3d, 0x22, 0xc8, 0xac, 0x3d, 0x56, 0x94, 0x1e, 0xbd,
  0x68, 0x1c, 0x63, 0xbe, 0x6b, 0x3e, 0xc4, 0xbc, 0xca, 0xe3, 0xf6, 0xbc,
  0xcc, 0xf2, 0xdc, 0x3d, 0xdd, 0x28, 0xd9, 0x3d, 0x3a, 0x14, 0x17, 0x3c,
  0x58, 0xfc, 0x70, 0xbe, 0x1f, 0x5f, 0x34, 0x3e, 0x36, 0x02, 0x1f, 0xbe,
  0xfa, 0xd9, 0x8b, 0x3d, 0x9a, 0xdd, 0x49, 0xbe, 0x65, 0xaa, 0x6e, 0x3d,
  0xdb, 0x40, 0x3f, 0x3e, 0xfc, 0x8a, 0x08, 0xbd, 0x0f, 0x26, 0x03, 0xbe,
  0xb2, 0x31, 0x13, 0xbd, 0x7e, 0x7b, 0x57, 0xbe, 0xe1, 0x03, 0x44, 0x3e,
  0xfb, 0x63, 0x9f, 0xbc, 0x21, 0xff, 0xd2, 0xbc, 0x67, 0x49, 0xa8, 0x3e,
  0x05, 0xe5, 0x91, 0xbd, 0x4d, 0x0e, 0x2c, 0x3e, 0x24, 0x38, 0x93, 0x3e,
  0x20, 0x91, 0x2d, 0xbe, 0x93, 0x5f, 0x5a, 0x3d, 0xf7, 0x18, 0x21, 0x3e,
  0xcf, 0x2f, 0x8a, 0x3e, 0x2b, 0xd1, 0x60, 0x3e, 0x31, 0x41, 0x45, 0x3e,
  0x15, 0x72, 0x5b, 0xbe, 0xb6, 0x1a, 0x71, 0xbe, 0x2d, 0x11, 0x25, 0xbe,
  0xae, 0x35, 0xe5, 0x3d, 0xc5, 0xb0, 0x02, 0x3e, 0xa1, 0xb2, 0x82, 0xbe,
  0x01, 0xf2, 0xb7, 0x3e, 0x06, 0x38, 0x4c, 0x3e, 0xba, 0x82, 0xe4, 0xbd,
  0x1f, 0xdf, 0xbf, 0x3e, 0x51, 0xb0, 0x39, 0xbe, 0x45, 0xc7, 0x96, 0x3d,
  0xf5, 0xb7, 0xff, 0xbc, 0x43, 0xea, 0xc3, 0x3e, 0x1d, 0x67, 0x83, 0xbd,
  0xd8, 0xf7, 0xb8, 0x3e, 0x2e, 0x49, 0x41, 0xbd, 0x02, 0x19, 0xf3, 0xbd,
  0x81, 0x39, 0x62, 0x3d, 0xb5, 0x6a, 0xab, 0x3d, 0x27, 0x9a, 0xfb, 0x3e,
  0x5b, 0x48, 0xf7, 0x3d, 0xaf, 0x80, 0x48, 0x3f, 0xbf, 0x0a, 0x88, 0xbc,
  0xad, 0x70, 0xc8, 0x3d, 0xe4, 0x19, 0x2b, 0x3e, 0x0e, 0x12, 0xe3, 0xbe,
  0xb8, 0x34, 0xcc, 0xbd, 0x77, 0x2d, 0xa0, 0xbd, 0x8e, 0xfb, 0xd7, 0x3d,
  0xe2, 0xcd, 0x5b, 0xbd, 0x76, 0xf2, 0xe6, 0xbb, 0x49, 0x5a, 0xfe, 0x3d,
  0xa1, 0x95, 0xb7, 0xbe, 0x4e, 0x43, 0x96, 0xbe, 0x74, 0xb4, 0xcb, 0x3d,
  0x30, 0xa7, 0x21, 0x3e, 0xa4, 0xaf, 0x55, 0x3d, 0x9d, 0x40, 0xf5, 0x3c,
  0x6e, 0xf4, 0xf6, 0x3d, 0x4c, 0x91, 0xa0, 0xbd, 0xe0, 0xda, 0x84, 0x3c,
  0xad, 0x2e, 0xe1, 0xbe, 0xc0, 0x7e, 0x06, 0xbe, 0x29, 0x5b, 0x97, 0x3d,
  0xb6, 0xd1, 0x17, 0x3d, 0xe5, 0xea, 0x07, 0x3e, 0xc5, 0x70, 0x56, 0xbe,
  0x2a, 0x85, 0x3e, 0xbe, 0x98, 0xa8, 0x2c, 0xbe, 0xf5, 0x60, 0x84, 0xbe,
  0x6f, 0x32, 0xf1, 0x3d, 0x50, 0x6f, 0x08, 0x3e, 0x6f, 0xaa, 0xe0, 0x3c,
  0x8a, 0xa8, 0x6e, 0x3e, 0x31, 0xc0, 0xb3, 0x3d, 0x09, 0x9f, 0xe8, 0xbd,
  0xcb, 0x06, 0x86, 0xbe, 0x58, 0x46, 0xdd, 0xbe, 0xde, 0xe0, 0x1d, 0x3e,
  0x04, 0xd1, 0xe0, 0xbe, 0x5a, 0xf3, 0x0a, 0x3e, 0x8a, 0xbf, 0x68, 0x3d,
  0x8f, 0x42, 0xa4, 0xbe, 0xc9, 0xa1, 0xec, 0x3d, 0xa0, 0x12, 0x0c, 0xbe,
  0xa9, 0x82, 0x77, 0xbe, 0x98, 0xb5, 0x0d, 0xbe, 0xef, 0xe5, 0x6f, 0xbd,
  0xf1, 0xf6, 0x70, 0xbe, 0x74, 0x0f, 0x22, 0x3e, 0xb4, 0x22, 0xdf, 0xbd,
  0x37, 0x8c, 0xad, 0xbe, 0xce, 0x3f, 0x72, 0xbd, 0xeb, 0x73, 0xe1, 0x3c,
  0x31, 0xd5, 0x8d, 0xbe, 0x8a, 0xa6, 0x98, 0x3e, 0x1d, 0x3d, 0xcf, 0xbe,
  0xd0, 0x65, 0x50, 0x3c, 0x3a, 0x78, 0x8c, 0x3e, 0xe6, 0x1f, 0x50, 0x3d,
  0x12, 0xd1, 0xa7, 0xbe, 0x56, 0x09, 0x0a, 0xbe, 0x27, 0x7a, 0x09, 0xbf,
  0x67, 0x5b, 0x82, 0x3e, 0xcf, 0x93, 0x9c, 0xbb, 0x06, 0x0f, 0xc5, 0xbe,
  0x81, 0xb6, 0xf6, 0xbc, 0x41, 0x97, 0x47, 0xbd, 0xc6, 0xaa, 0xb9, 0x3e,
  0x1b, 0x6d, 0xe2, 0xbc, 0x98, 0xea, 0x2a, 0xbe, 0xa7, 0xc9, 0x60, 0x3e,
  0x55, 0xcc, 0x9f, 0xbe, 0x82, 0x3a, 0x07, 0x3d, 0x60, 0x80, 0x7c, 0x3d,
  0xcc, 0x90, 0x98, 0xbd, 0xf8, 0x08, 0x7c, 0xbe, 0x4f, 0xee, 0x8a, 0x3d,
  0xc3, 0x74, 0x14, 0xbe, 0x74, 0x77, 0x05, 0x3e, 0x29, 0xee, 0x03, 0xbe,
  0x64, 0x92, 0x0c, 0xbf, 0x9a, 0xd4, 0x79, 0xbd, 0xa1, 0xd1, 0x02, 0x3e,
  0x6b, 0x5e, 0x10, 0x3f, 0x59, 0x2e, 0x57, 0xbd, 0xc8, 0x73, 0x96, 0xbd,
  0x9d, 0x97, 0x07, 0x3f, 0xef, 0xd6, 0x0b, 0xbe, 0x4b, 0xf1, 0x8b, 0x3d,
  0x86, 0x64, 0x4a, 0xbd, 0xaf, 0x53, 0x51, 0xbe, 0xe0, 0xe5, 0xf2, 0xbd,
  0x31, 0x13, 0xf4, 0xbd, 0xb2, 0x7e, 0x35, 0x3d, 0x5f, 0x73, 0x19, 0x3e,
  0xec, 0x6f, 0x80, 0xbd, 0x44, 0x4b, 0x0a, 0xbf, 0xb4, 0x5c, 0xa8, 0x3e,
  0x10, 0x45, 0x1e, 0xbd, 0xac, 0x14, 0x0e, 0x3f, 0xd9, 0x3a, 0xe7, 0xbc,
  0x32, 0x88, 0xf3, 0x3b, 0xb6, 0x62, 0x89, 0x3e, 0x7e, 0x79, 0x0b, 0xbd,
  0x41, 0xe5, 0x0c, 0xbe, 0x0b, 0x96, 0x14, 0x3e, 0x92, 0x6c, 0x5a, 0xbc,
  0xe9, 0x88, 0xb9, 0xbc, 0x0f, 0xcb, 0x99, 0xbd, 0xcc, 0x32, 0x25, 0xbe,
  0x46, 0x44, 0x8f, 0x3e, 0xe3, 0xcd, 0x11, 0xbd, 0x4e, 0x72, 0xc6, 0xbe,
  0x70, 0x8d, 0x9a, 0x3e, 0x45, 0x20, 0x71, 0xbe, 0xbb, 0xf6, 0x55, 0x3e,
  0xa0, 0x8e, 0x78, 0x3c, 0x59, 0x14, 0x42, 0xbe, 0xee, 0xed, 0xc6, 0x3e,
  0xff, 0x3b, 0x93, 0xbe, 0x17, 0x25, 0x7b, 0xbe, 0xca, 0x9e, 0x2a, 0x3e,
  0xdf, 0xd8, 0x4c, 0x3d, 0x2e, 0x19, 0x45, 0xbc, 0x0f, 0xcb, 0xef, 0xbc,
  0xd4, 0x64, 0x8a, 0xbe, 0x11, 0x3c, 0xea, 0x3e, 0x5e, 0x1e, 0xc5, 0xbb,
  0x28, 0x29, 0x07, 0xbf, 0x18, 0xd6, 0xf0, 0x3d, 0x21, 0x6a, 0x81, 0xbe,
  0xe3, 0xc3, 0x3e, 0x3e, 0xf5, 0xca, 0xef, 0xbc, 0xd8, 0x1b, 0x8c, 0xbe,
  0xfb, 0xc7, 0x0a, 0x3f, 0x61, 0xa0, 0xa4, 0xbe, 0xee, 0x69, 0x82, 0xbe,
  0xac, 0x4d, 0xd8, 0x3e, 0x0e, 0x0f, 0xed, 0xbd, 0x0c, 0xc1, 0x00, 0xbd,
  0xb2, 0x09, 0x91, 0xbe, 0x8d, 0x9b, 0x26, 0xbe, 0x42, 0x96, 0xe4, 0x3e,
  0x21, 0xc3, 0x30, 0x3e, 0xe7, 0xe1, 0xe4, 0xbe, 0x96, 0xf3, 0xec, 0xbd,
  0x3b, 0x1f, 0x06, 0xbe, 0xa2, 0xd7, 0x2a, 0x3e, 0xb2, 0x0e, 0x19, 0xbd,
  0xf8, 0xbf, 0x81, 0x3c, 0x68, 0xbe, 0x29, 0x3d, 0x44, 0x65, 0x5a, 0xbe,
  0x81, 0xa1, 0xcd, 0x3d, 0x8a, 0x08, 0x05, 0x3d, 0xbe, 0xfc, 0x7b, 0x3c,
  0x8d, 0x4e, 0x14, 0x3d, 0x9d, 0xaa, 0x50, 0xbd, 0x37, 0x06, 0x73, 0x3d,
  0x1d, 0x3f, 0x0b, 0xbc, 0x35, 0xe6, 0x76, 0x3d, 0xc7, 0xdf, 0x18, 0xbe,
  0x55, 0x93, 0x2d, 0xbe, 0x62, 0xfd, 0xff, 0xff, 0x10, 0x00, 0x00, 0x00,
  0x07, 0x00, 0x00, 0x00, 0x14, 0x00, 0x00, 0x00, 0x2c, 0x00, 0x00, 0x00,
  0x02, 0x00, 0x00, 0x00, 0x10, 0x00, 0x00, 0x00, 0x70, 0x00, 0x00, 0x00,
  0x17, 0x00, 0x00, 0x00, 0x73, 0x65, 0x71, 0x75, 0x65, 0x6e, 0x74, 0x69,
  0x61, 0x6c, 0x2f, 0x64, 0x65, 0x6e, 0x73, 0x65, 0x2f, 0x4d, 0x61, 0x74,
  0x4d, 0x75, 0x6c, 0x00, 0xcc, 0xfc, 0xff, 0xff, 0xd6, 0xfd, 0xff, 0xff,
  0x04, 0x00, 0x00, 0x00, 0x08, 0x00, 0x00, 0x00, 0xff, 0xff, 0xff, 0xff,
  0x70, 0x00, 0x00, 0x00, 0x00, 0x00, 0x0e, 0x00, 0x18, 0x00, 0x08, 0x00,
  0x07, 0x00, 0x0c, 0x00, 0x10, 0x00, 0x14, 0x00, 0x0e, 0x00, 0x00, 0x00,
  0x00, 0x00, 0x00, 0x02, 0x10, 0x00, 0x00, 0x00, 0x06, 0x00, 0x00, 0x00,
  0x10, 0x00, 0x00, 0x00, 0x2c, 0x00, 0x00, 0x00, 0x01, 0x00, 0x00, 0x00,
  0x02, 0x00, 0x00, 0x00, 0x18, 0x00, 0x00, 0x00, 0x73, 0x65, 0x71, 0x75,
  0x65, 0x6e, 0x74, 0x69, 0x61, 0x6c, 0x2f, 0x66, 0x6c, 0x61, 0x74, 0x74,
  0x65, 0x6e, 0x2f, 0x43, 0x6f, 0x6e, 0x73, 0x74, 0x00, 0x00, 0x00, 0x00,
  0x34, 0xfd, 0xff, 0xff, 0x3e, 0xfe, 0xff, 0xff, 0x04, 0x00, 0x00, 0x00,
  0x10, 0x00, 0x00, 0x00, 0xeb, 0xff, 0x08, 0xc0, 0x5e, 0xcb, 0x48, 0xc0,
  0x9f, 0xa1, 0x21, 0xc0, 0x1f, 0xae, 0x69, 0x40, 0x26, 0xfe, 0xff, 0xff,
  0x10, 0x00, 0x00, 0x00, 0x05, 0x00, 0x00, 0x00, 0x10, 0x00, 0x00, 0x00,
  0x44, 0x00, 0x00, 0x00, 0x01, 0x00, 0x00, 0x00, 0x04, 0x00, 0x00, 0x00,
  0x32, 0x00, 0x00, 0x00, 0x73, 0x65, 0x71, 0x75, 0x65, 0x6e, 0x74, 0x69,
  0x61, 0x6c, 0x2f, 0x64, 0x65, 0x6e, 0x73, 0x65, 0x5f, 0x31, 0x2f, 0x42,
  0x69, 0x61, 0x73, 0x41, 0x64, 0x64, 0x2f, 0x52, 0x65, 0x61, 0x64, 0x56,
  0x61, 0x72, 0x69, 0x61, 0x62, 0x6c, 0x65, 0x4f, 0x70, 0x2f, 0x72, 0x65,
  0x73, 0x6f, 0x75, 0x72, 0x63, 0x65, 0x00, 0x00, 0xa8, 0xfd, 0xff, 0xff,
  0xb2, 0xfe, 0xff, 0xff, 0x04, 0x00, 0x00, 0x00, 0x40, 0x00, 0x00, 0x00,
  0x08, 0x34, 0x97, 0xbf, 0x76, 0x7e, 0x8b, 0xbf, 0x21, 0x21, 0x70, 0xbf,
  0x30, 0x76, 0x76, 0xbf, 0x52, 0xed, 0x0e, 0xbe, 0xde, 0x8e, 0x31, 0xbe,
  0xdb, 0x8a, 0x62, 0xbe, 0x3b, 0x7f, 0xd2, 0xbd, 0x48, 0xfc, 0xe2, 0xbf,
  0x47, 0xed, 0xe9, 0xbf, 0xa1, 0x60, 0x19, 0xbf, 0x59, 0x14, 0x99, 0x3f,
  0xfb, 0x26, 0xe0, 0x3f, 0x82, 0x71, 0xe6, 0x3f, 0xa7, 0xba, 0xb3, 0xbe,
  0xca, 0xc1, 0xce, 0xbf, 0xca, 0xfe, 0xff, 0xff, 0x10, 0x00, 0x00, 0x00,
  0x04, 0x00, 0x00, 0x00, 0x10, 0x00, 0x00, 0x00, 0x44, 0x00, 0x00, 0x00,
  0x01, 0x00, 0x00, 0x00, 0x10, 0x00, 0x00, 0x00, 0x30, 0x00, 0x00, 0x00,
  0x73, 0x65, 0x71, 0x75, 0x65, 0x6e, 0x74, 0x69, 0x61, 0x6c, 0x2f, 0x64,
  0x65, 0x6e, 0x73, 0x65, 0x2f, 0x42, 0x69, 0x61, 0x73, 0x41, 0x64, 0x64,
  0x2f, 0x52, 0x65, 0x61, 0x64, 0x56, 0x61, 0x72, 0x69, 0x61, 0x62, 0x6c,
  0x65, 0x4f, 0x70, 0x2f, 0x72, 0x65, 0x73, 0x6f, 0x75, 0x72, 0x63, 0x65,
  0x00, 0x00, 0x00, 0x00, 0x4c, 0xfe, 0xff, 0xff, 0x56, 0xff, 0xff, 0xff,
  0x04, 0x00, 0x00, 0x00, 0x40, 0x00, 0x00, 0x00, 0xfa, 0x0c, 0x87, 0xbf,
  0xe9, 0x22, 0x16, 0xbf, 0x8b, 0x5b, 0xd7, 0xbe, 0x73, 0x3f, 0x33, 0x40,
  0xf3, 0x03, 0x3e, 0xbf, 0x76, 0x75, 0xa1, 0xbf, 0xc6, 0x05, 0x9f, 0xbe,
  0x08, 0x37, 0xc8, 0xbf, 0x06, 0x2a, 0x6a, 0x40, 0x1f, 0xd0, 0x97, 0xbe,
  0xa8, 0x7b, 0x49, 0x40, 0x2c, 0xf8, 0xc1, 0xbe, 0x55, 0xd7, 0xb9, 0xbf,
  0x56, 0x09, 0x79, 0xbf, 0xe9, 0x21, 0x82, 0x3f, 0xc9, 0xca, 0xf1, 0xbf,
  0x6e, 0xff, 0xff, 0xff, 0x10, 0x00, 0x00, 0x00, 0x03, 0x00, 0x00, 0x00,
  0x10, 0x00, 0x00, 0x00, 0x48, 0x00, 0x00, 0x00, 0x01, 0x00, 0x00, 0x00,
  0x10, 0x00, 0x00, 0x00, 0x33, 0x00, 0x00, 0x00, 0x73, 0x65, 0x71, 0x75,
  0x65, 0x6e, 0x74, 0x69, 0x61, 0x6c, 0x2f, 0x63, 0x6f, 0x6e, 0x76, 0x32,
  0x64, 0x5f, 0x31, 0x2f, 0x42, 0x69, 0x61, 0x73, 0x41, 0x64, 0x64, 0x2f,
  0x52, 0x65, 0x61, 0x64, 0x56, 0x61, 0x72, 0x69, 0x61, 0x62, 0x6c, 0x65,
  0x4f, 0x70, 0x2f, 0x72, 0x65, 0x73, 0x6f, 0x75, 0x72, 0x63, 0x65, 0x00,
  0x04, 0x00, 0x06, 0x00, 0x04, 0x00, 0x00, 0x00, 0x00, 0x00, 0x06, 0x00,
  0x08, 0x00, 0x04, 0x00, 0x06, 0x00, 0x00, 0x00, 0x04, 0x00, 0x00, 0x00,
  0x20, 0x00, 0x00, 0x00, 0xbf, 0x25, 0x28, 0xc0, 0x9c, 0x63, 0x8d, 0xbf,
  0x8b, 0x6e, 0x30, 0xc0, 0xed, 0x66, 0x2f, 0xc0, 0x9e, 0x75, 0xcc, 0xbf,
  0x31, 0x6e, 0xf1, 0xbf, 0x0d, 0x3b, 0xc7, 0xbf, 0x29, 0x91, 0xfc, 0xbf,
  0x00, 0x00, 0x0e, 0x00, 0x14, 0x00, 0x04, 0x00, 0x00, 0x00, 0x08, 0x00,
  0x0c, 0x00, 0x10, 0x00, 0x0e, 0x00, 0x00, 0x00, 0x10, 0x00, 0x00, 0x00,
  0x02, 0x00, 0x00, 0x00, 0x10, 0x00, 0x00, 0x00, 0x44, 0x00, 0x00, 0x00,
  0x01, 0x00, 0x00, 0x00, 0x08, 0x00, 0x00, 0x00, 0x31, 0x00, 0x00, 0x00,
  0x73, 0x65, 0x71, 0x75, 0x65, 0x6e, 0x74, 0x69, 0x61, 0x6c, 0x2f, 0x63,
  0x6f, 0x6e, 0x76, 0x32, 0x64, 0x2f, 0x42, 0x69, 0x61, 0x73, 0x41, 0x64,
  0x64, 0x2f, 0x52, 0x65, 0x61, 0x64, 0x56, 0x61, 0x72, 0x69, 0x61, 0x62,
  0x6c, 0x65, 0x4f, 0x70, 0x2f, 0x72, 0x65, 0x73, 0x6f, 0x75, 0x72, 0x63,
  0x65, 0x00, 0x00, 0x00, 0x90, 0xff, 0xff, 0xff, 0x14, 0x00, 0x18, 0x00,
  0x04, 0x00, 0x00, 0x00, 0x08, 0x00, 0x0c, 0x00, 0x10, 0x00, 0x00, 0x00,
  0x00, 0x00, 0x14, 0x00, 0x14, 0x00, 0x00, 0x00, 0x14, 0x00, 0x00, 0x00,
  0x01, 0x00, 0x00, 0x00, 0x20, 0x00, 0x00, 0x00, 0x44, 0x00, 0x00, 0x00,
  0x2c, 0x00, 0x00, 0x00, 0x04, 0x00, 0x00, 0x00, 0x01, 0x00, 0x00, 0x00,
  0x40, 0x00, 0x00, 0x00, 0x03, 0x00, 0x00, 0x00, 0x01, 0x00, 0x00, 0x00,
  0x0c, 0x00, 0x00, 0x00, 0x63, 0x6f, 0x6e, 0x76, 0x32, 0x64, 0x5f, 0x69,
  0x6e, 0x70, 0x75, 0x74, 0x00, 0x00, 0x00, 0x00, 0x04, 0x00, 0x00, 0x00,
  0xff, 0xff, 0xff, 0xff, 0x40, 0x00, 0x00, 0x00, 0x03, 0x00, 0x00, 0x00,
  0x01, 0x00, 0x00, 0x00, 0xfc, 0xff, 0xff, 0xff, 0x04, 0x00, 0x04, 0x00,
  0x04, 0x00, 0x00, 0x00
};

unsigned int model_tflite_len = 13120;// Fill the int in `src/model.cc` here